#ifndef ENVIRONMENT_MODEL_DATA_CONV1D_TINY_H
#define ENVIRONMENT_MODEL_DATA_CONV1D_TINY_H

#include <cstdint>

alignas(8) const unsigned char environment_model[] = {0x20,0x00,0x00,0x00,0x54,0x46,0x4c,0x33,0x00,0x00,0x00,0x00,0x14,0x00,0x20,0x00,0x1c,0x00,0x18,0x00,0x14,0x00,0x10,0x00,0x0c,0x00,0x00,0x00,0x08,0x00,0x04,0x00,0x14,0x00,0x00,0x00,0x1c,0x00,0x00,0x00,0xa8,0x00,0x00,0x00,0x00,0x01,0x00,0x00,0x58,0x04,0x00,0x00,0x68,0x04,0x00,0x00,0xa8,0x1b,0x00,0x00,0x03,0x00,0x00,0x00,0x01,0x00,0x00,0x00,0x04,0x00,0x00,0x00,0xbe,0xf9,0xff,0xff,0x0c,0x00,0x00,0x00,0x1c,0x00,0x00,0x00,0x54,0x00,0x00,0x00,0x0f,0x00,0x00,0x00,0x73,0x65,0x72,0x76,0x69,0x6e,0x67,0x5f,0x64,0x65,0x66,0x61,0x75,0x6c,0x74,0x00,0x02,0x00,0x00,0x00,0x20,0x00,0x00,0x00,0x04,0x00,0x00,0x00,0x78,0xff,0xff,0xff,0x18,0x00,0x00,0x00,0x04,0x00,0x00,0x00,0x06,0x00,0x00,0x00,0x68,0x65,0x61,0x64,0x5f,0x54,0x00,0x00,0x90,0xff,0xff,0xff,0x16,0x00,0x00,0x00,0x04,0x00,0x00,0x00,0x06,0x00,0x00,0x00,0x68,0x65,0x61,0x64,0x5f,0x48,0x00,0x00,0x01,0x00,0x00,0x00,0x04,0x00,0x00,0x00,0x46,0xfc,0xff,0xff,0x04,0x00,0x00,0x00,0x12,0x00,0x00,0x00,0x69,0x6e,0x70,0x75,0x74,0x73,0x5f,0x77,0x69,0x6e,0x64,0x6f,0x77,0x78,0x66,0x65,0x61,0x74,0x00,0x00,0x02,0x00,0x00,0x00,0x34,0x00,0x00,0x00,0x04,0x00,0x00,0x00,0xdc,0xff,0xff,0xff,0x1b,0x00,0x00,0x00,0x04,0x00,0x00,0x00,0x13,0x00,0x00,0x00,0x43,0x4f,0x4e,0x56,0x45,0x52,0x53,0x49,0x4f,0x4e,0x5f,0x4d,0x45,0x54,0x41,0x44,0x41,0x54,0x41,0x00,0x08,0x00,0x0c,0x00,0x08,0x00,0x04,0x00,0x08,0x00,0x00,0x00,0x1a,0x00,0x00,0x00,0x04,0x00,0x00,0x00,0x13,0x00,0x00,0x00,0x6d,0x69,0x6e,0x5f,0x72,0x75,0x6e,0x74,0x69,0x6d,0x65,0x5f,0x76,0x65,0x72,0x73,0x69,0x6f,0x6e,0x00,0x1c,0x00,0x00,0x00,0x54,0x03,0x00,0x00,0x4c,0x03,0x00,0x00,0x38,0x03,0x00,0x00,0x14,0x03,0x00,0x00,0x00,0x03,0x00,0x00,0xe4,0x02,0x00,0x00,0xd0,0x02,0x00,0x00,0xb4,0x02,0x00,0x00,0x74,0x02,0x00,0x00,0x40,0x02,0x00,0x00,0x00,0x02,0x00,0x00,0x60,0x01,0x00,0x00,0x20,0x01,0x00,0x00,0xec,0x00,0x00,0x00,0xe4,0x00,0x00,0x00,0xdc,0x00,0x00,0x00,0xd4,0x00,0x00,0x00,0xcc,0x00,0x00,0x00,0xc4,0x00,0x00,0x00,0xbc,0x00,0x00,0x00,0xb4,0x00,0x00,0x00,0xac,0x00,0x00,0x00,0xa4,0x00,0x00,0x00,0x9c,0x00,0x00,0x00,0x94,0x00,0x00,0x00,0x8c,0x00,0x00,0x00,0x6c,0x00,0x00,0x00,0x04,0x00,0x00,0x00,0x36,0xfd,0xff,0xff,0x04,0x00,0x00,0x00,0x58,0x00,0x00,0x00,0x0c,0x00,0x00,0x00,0x08,0x00,0x0e,0x00,0x08,0x00,0x04,0x00,0x08,0x00,0x00,0x00,0x10,0x00,0x00,0x00,0x28,0x00,0x00,0x00,0x00,0x00,0x06,0x00,0x08,0x00,0x04,0x00,0x06,0x00,0x00,0x00,0x04,0x00,0x00,0x00,0x01,0x00,0x00,0x00,0xeb,0x03,0x00,0x00,0x00,0x00,0x0a,0x00,0x10,0x00,0x0c,0x00,0x08,0x00,0x04,0x00,0x0a,0x00,0x00,0x00,0x02,0x00,0x00,0x00,0x02,0x00,0x00,0x00,0x04,0x00,0x00,0x00,0x06,0x00,0x00,0x00,0x32,0x2e,0x31,0x34,0x2e,0x30,0x00,0x00,0x9a,0xfd,0xff,0xff,0x04,0x00,0x00,0x00,0x10,0x00,0x00,0x00,0x31,0x2e,0x31,0x34,0x2e,0x30,0x00,0x00,0x00,0x00,0x00,0x00,0x00,0x00,0x00,0x00,0x40,0xe7,0xff,0xff,0x44,0xe7,0xff,0xff,0x48,0xe7,0xff,0xff,0x4c,0xe7,0xff,0xff,0x50,0xe7,0xff,0xff,0x54,0xe7,0xff,0xff,0x58,0xe7,0xff,0xff,0x5c,0xe7,0xff,0xff,0x60,0xe7,0xff,0xff,0x64,0xe7,0xff,0xff,0x68,0xe7,0xff,0xff,0x6c,0xe7,0xff,0xff,0xe6,0xfd,0xff,0xff,0x04,0x00,0x00,0x00,0x24,0x00,0x00,0x00,0x69,0x7f,0x81,0x7f,0x8f,0x0c,0x7f,0x9a,0xe5,0x18,0xc1,0xf1,0x7f,0x32,0xea,0x46,0x81,0x81,0x0d,0x81,0x81,0x7f,0x7f,0xb2,0x67,0xa6,0xcf,0x03,0x26,0x83,0xc2,0x60,0xa3,0x9d,0xeb,0x81,0x16,0xfe,0xff,0xff,0x04,0x00,0x00,0x00,0x30,0x00,0x00,0x00,0x00,0x00,0x00,0x00,0x00,0x00,0x00,0x00,0x00,0x00,0x00,0x00,0x00,0x00,0x00,0x00,0x00,0x00,0x00,0x00,0x00,0x00,0x00,0x00,0x00,0x00,0x00,0x00,0x00,0x00,0x00,0x00,0x00,0x00,0x00,0x00,0x00,0x00,0x00,0x00,0x00,0x00,0x00,0x00,0x00,0x00,0x00,0x00,0x52,0xfe,0xff,0xff,0x04,0x00,0x00,0x00,0x90,0x00,0x00,0x00,0x7f,0x3a,0x34,0x82,0xae,0x65,0xa9,0x6b,0x2d,0x0e,0x2e,0xf4,0xff,0x14,0x6e,0x95,0xd4,0xcf,0xf9,0xef,0xe9,0x81,0xc3,0x3c,0x52,0xfd,0xeb,0xa4,0x37,0x81,0x45,0xad,0x13,0x9f,0xf5,0x14,0x44,0xce,0xb7,0x12,0x08,0x00,0x7f,0xf5,0x37,0x05,0xb4,0xf4,0x60,0x3f,0x14,0xe4,0x6b,0xef,0x75,0xe3,0x0c,0x18,0x7f,0xb9,0x8c,0x57,0x02,0x74,0x04,0x29,0xa7,0xc1,0xd8,0x7f,0x88,0xab,0x37,0xd0,0xb5,0xf5,0x54,0x14,0x15,0xa4,0x14,0x81,0x0b,0x94,0x00,0x00,0x00,0x39,0x35,0xe4,0x81,0x50,0x00,0x38,0x0a,0xfb,0xa0,0x19,0x56,0x00,0x00,0x29,0x01,0xa3,0x7f,0xea,0xdb,0x00,0xe4,0x73,0x3b,0x6f,0x7f,0xdb,0x00,0x5a,0xe8,0x12,0xf0,0x61,0xca,0x2c,0xa0,0xa6,0xfa,0x74,0x74,0xd8,0x81,0x33,0xcc,0xd2,0x11,0x6a,0x90,0xd6,0xc9,0xfb,0x62,0x81,0xb8,0xd0,0x05,0xf8,0xee,0xfe,0xff,0xff,0x04,0x00,0x00,0x00,0x30,0x00,0x00,0x00,0x1b,0xf7,0xff,0xff,0x88,0xf4,0xff,0xff,0x21,0x0f,0x00,0x00,0x7f,0x07,0x00,0x00,0x6e,0x13,0x00,0x00,0xa7,0xf4,0xff,0xff,0x9e,0xfe,0xff,0xff,0x88,0xfc,0xff,0xff,0x00,0x00,0x00,0x00,0x36,0xf8,0xff,0xff,0x5f,0x08,0x00,0x00,0x4f,0x0f,0x00,0x00,0x2a,0xff,0xff,0xff,0x04,0x00,0x00,0x00,0x24,0x00,0x00,0x00,0x7f,0xfe,0x02,0x81,0xf7,0x7f,0x81,0xfe,0x9e,0x89,0xcc,0x4c,0xf9,0x7f,0x44,0x13,0x0a,0x00,0xdc,0x00,0x00,0x7f,0xa6,0xc4,0xd3,0x35,0x7f,0x68,0x7f,0x90,0x61,0x7f,0x81,0x00,0x7f,0x7f,0x5a,0xff,0xff,0xff,0x04,0x00,0x00,0x00,0x30,0x00,0x00,0x00,0x8f,0x2f,0x00,0x00,0xda,0xdf,0xff,0xff,0x97,0x26,0x00,0x00,0xa1,0xf4,0xff,0xff,0x6e,0x2a,0x00,0x00,0xb0,0xd3,0xff,0xff,0x9f,0x39,0x00,0x00,0x81,0xdd,0xff,0xff,0x00,0x00,0x00,0x00,0x6d,0xe3,0xff,0xff,0x84,0x0f,0x00,0x00,0xfd,0x2f,0x00,0x00,0x96,0xff,0xff,0xff,0x04,0x00,0x00,0x00,0x0c,0x00,0x00,0x00,0x7f,0xd6,0x56,0x9e,0x39,0xbb,0xea,0xaf,0x19,0xbb,0x43,0x3c,0xae,0xff,0xff,0xff,0x04,0x00,0x00,0x00,0x04,0x00,0x00,0x00,0xfa,0x3b,0x00,0x00,0xbe,0xff,0xff,0xff,0x04,0x00,0x00,0x00,0x0c,0x00,0x00,0x00,0x6c,0x00,0x02,0x02,0x64,0x00,0x7f,0x48,0xe3,0x00,0xe0,0x4d,0xd6,0xff,0xff,0xff,0x04,0x00,0x00,0x00,0x04,0x00,0x00,0x00,0xcc,0x5e,0x00,0x00,0xe6,0xff,0xff,0xff,0x04,0x00,0x00,0x00,0x0c,0x00,0x00,0x00,0xff,0xff,0xff,0xff,0x18,0x00,0x00,0x00,0x0c,0x00,0x00,0x00,0x00,0x00,0x06,0x00,0x08,0x00,0x04,0x00,0x06,0x00,0x00,0x00,0x04,0x00,0x00,0x00,0x04,0x00,0x00,0x00,0x01,0x00,0x00,0x00,0xa0,0xe9,0xff,0xff,0xa4,0xe9,0xff,0xff,0x0f,0x00,0x00,0x00,0x4d,0x4c,0x49,0x52,0x20,0x43,0x6f,0x6e,0x76,0x65,0x72,0x74,0x65,0x64,0x2e,0x00,0x01,0x00,0x00,0x00,0x14,0x00,0x00,0x00,0x00,0x00,0x0e,0x00,0x18,0x00,0x14,0x00,0x10,0x00,0x0c,0x00,0x08,0x00,0x04,0x00,0x0e,0x00,0x00,0x00,0x14,0x00,0x00,0x00,0x1c,0x00,0x00,0x00,0xe0,0x02,0x00,0x00,0xe8,0x02,0x00,0x00,0xec,0x02,0x00,0x00,0x04,0x00,0x00,0x00,0x6d,0x61,0x69,0x6e,0x00,0x00,0x00,0x00,0x0c,0x00,0x00,0x00,0x98,0x02,0x00,0x00,0x38,0x02,0x00,0x00,0xd4,0x01,0x00,0x00,0xac,0x01,0x00,0x00,0x70,0x01,0x00,0x00,0x18,0x01,0x00,0x00,0xf0,0x00,0x00,0x00,0xbc,0x00,0x00,0x00,0x84,0x00,0x00,0x00,0x60,0x00,0x00,0x00,0x28,0x00,0x00,0x00,0x04,0x00,0x00,0x00,0x82,0xfe,0xff,0xff,0x0c,0x00,0x00,0x00,0x10,0x00,0x00,0x00,0x06,0x00,0x00,0x00,0x01,0x00,0x00,0x00,0x18,0x00,0x00,0x00,0x01,0x00,0x00,0x00,0x17,0x00,0x00,0x00,0x22,0xfe,0xff,0xff,0x14,0x00,0x00,0x00,0x00,0x00,0x00,0x08,0x10,0x00,0x00,0x00,0x14,0x00,0x00,0x00,0x05,0x00,0x00,0x00,0x64,0xea,0xff,0xff,0x01,0x00,0x00,0x00,0x17,0x00,0x00,0x00,0x03,0x00,0x00,0x00,0x14,0x00,0x00,0x00,0x04,0x00,0x00,0x00,0x03,0x00,0x00,0x00,0xd6,0xfe,0xff,0xff,0x0c,0x00,0x00,0x00,0x10,0x00,0x00,0x00,0x06,0x00,0x00,0x00,0x01,0x00,0x00,0x00,0x16,0x00,0x00,0x00,0x01,0x00,0x00,0x00,0x15,0x00,0x00,0x00,0x76,0xfe,0xff,0xff,0x14,0x00,0x00,0x00,0x00,0x00,0x00,0x08,0x10,0x00,0x00,0x00,0x14,0x00,0x00,0x00,0x05,0x00,0x00,0x00,0xb8,0xea,0xff,0xff,0x01,0x00,0x00,0x00,0x15,0x00,0x00,0x00,0x03,0x00,0x00,0x00,0x14,0x00,0x00,0x00,0x06,0x00,0x00,0x00,0x05,0x00,0x00,0x00,0xaa,0xfe,0xff,0xff,0x14,0x00,0x00,0x00,0x00,0x00,0x00,0x1b,0x10,0x00,0x00,0x00,0x14,0x00,0x00,0x00,0x04,0x00,0x00,0x00,0xec,0xea,0xff,0xff,0x01,0x00,0x00,0x00,0x14,0x00,0x00,0x00,0x02,0x00,0x00,0x00,0x13,0x00,0x00,0x00,0x01,0x00,0x00,0x00,0x5a,0xff,0xff,0xff,0x0c,0x00,0x00,0x00,0x10,0x00,0x00,0x00,0x03,0x00,0x00,0x00,0x01,0x00,0x00,0x00,0x13,0x00,0x00,0x00,0x02,0x00,0x00,0x00,0x12,0x00,0x00,0x00,0x02,0x00,0x00,0x00,0xfe,0xfe,0xff,0xff,0x24,0x00,0x00,0x00,0x00,0x00,0x00,0x02,0x30,0x00,0x00,0x00,0x34,0x00,0x00,0x00,0x01,0x00,0x00,0x00,0x00,0x00,0x0e,0x00,0x14,0x00,0x00,0x00,0x10,0x00,0x0c,0x00,0x08,0x00,0x07,0x00,0x0e,0x00,0x00,0x00,0x00,0x00,0x00,0x01,0x01,0x00,0x00,0x00,0x01,0x00,0x00,0x00,0x01,0x00,0x00,0x00,0x01,0x00,0x00,0x00,0x12,0x00,0x00,0x00,0x03,0x00,0x00,0x00,0x11,0x00,0x00,0x00,0x08,0x00,0x00,0x00,0x07,0x00,0x00,0x00,0xf6,0xfe,0xff,0xff,0x10,0x00,0x00,0x00,0x00,0x00,0x00,0x34,0x0c,0x00,0x00,0x00,0x10,0x00,0x00,0x00,0x90,0xeb,0xff,0xff,0x01,0x00,0x00,0x00,0x11,0x00,0x00,0x00,0x02,0x00,0x00,0x00,0x10,0x00,0x00,0x00,0x01,0x00,0x00,0x00,0x00,0x00,0x0a,0x00,0x10,0x00,0x0c,0x00,0x08,0x00,0x04,0x00,0x0a,0x00,0x00,0x00,0x0c,0x00,0x00,0x00,0x10,0x00,0x00,0x00,0x03,0x00,0x00,0x00,0x01,0x00,0x00,0x00,0x10,0x00,0x00,0x00,0x02,0x00,0x00,0x00,0x0f,0x00,0x00,0x00,0x02,0x00,0x00,0x00,0xae,0xff,0xff,0xff,0x20,0x00,0x00,0x00,0x00,0x00,0x00,0x01,0x2c,0x00,0x00,0x00,0x30,0x00,0x00,0x00,0x02,0x00,0x00,0x00,0x0c,0x00,0x14,0x00,0x13,0x00,0x0c,0x00,0x08,0x00,0x07,0x00,0x0c,0x00,0x00,0x00,0x00,0x00,0x00,0x01,0x01,0x00,0x00,0x00,0x01,0x00,0x00,0x00,0x00,0x00,0x00,0x01,0x01,0x00,0x00,0x00,0x0f,0x00,0x00,0x00,0x03,0x00,0x00,0x00,0x0e,0x00,0x00,0x00,0x0a,0x00,0x00,0x00,0x09,0x00,0x00,0x00,0x00,0x00,0x0e,0x00,0x18,0x00,0x14,0x00,0x10,0x00,0x0c,0x00,0x0b,0x00,0x04,0x00,0x0e,0x00,0x00,0x00,0x20,0x00,0x00,0x00,0x00,0x00,0x00,0x02,0x28,0x00,0x00,0x00,0x2c,0x00,0x00,0x00,0x01,0x00,0x00,0x00,0x0c,0x00,0x10,0x00,0x00,0x00,0x0c,0x00,0x08,0x00,0x04,0x00,0x0c,0x00,0x00,0x00,0x01,0x00,0x00,0x00,0x01,0x00,0x00,0x00,0x01,0x00,0x00,0x00,0x01,0x00,0x00,0x00,0x0e,0x00,0x00,0x00,0x03,0x00,0x00,0x00,0x0d,0x00,0x00,0x00,0x0c,0x00,0x00,0x00,0x0b,0x00,0x00,0x00,0x00,0x00,0x0e,0x00,0x14,0x00,0x00,0x00,0x10,0x00,0x0c,0x00,0x0b,0x00,0x04,0x00,0x0e,0x00,0x00,0x00,0x10,0x00,0x00,0x00,0x00,0x00,0x00,0x34,0x0c,0x00,0x00,0x00,0x10,0x00,0x00,0x00,0xa8,0xec,0xff,0xff,0x01,0x00,0x00,0x00,0x0d,0x00,0x00,0x00,0x02,0x00,0x00,0x00,0x00,0x00,0x00,0x00,0x01,0x00,0x00,0x00,0x02,0x00,0x00,0x00,0x18,0x00,0x00,0x00,0x16,0x00,0x00,0x00,0x01,0x00,0x00,0x00,0x00,0x00,0x00,0x00,0x19,0x00,0x00,0x00,0x8c,0x13,0x00,0x00,0x08,0x13,0x00,0x00,0x58,0x12,0x00,0x00,0xc8,0x11,0x00,0x00,0x44,0x11,0x00,0x00,0xb0,0x10,0x00,0x00,0x2c,0x10,0x00,0x00,0x18,0x0f,0x00,0x00,0xec,0x0d,0x00,0x00,0xd0,0x0c,0x00,0x00,0xb4,0x0b,0x00,0x00,0xa8,0x0a,0x00,0x00,0x78,0x09,0x00,0x00,0xc8,0x08,0x00,0x00,0x0c,0x08,0x00,0x00,0x38,0x06,0x00,0x00,0x60,0x05,0x00,0x00,0xb8,0x04,0x00,0x00,0x2c,0x03,0x00,0x00,0x5c,0x02,0x00,0x00,0xcc,0x01,0x00,0x00,0x50,0x01,0x00,0x00,0xf4,0x00,0x00,0x00,0x60,0x00,0x00,0x00,0x04,0x00,0x00,0x00,0x2e,0xff,0xff,0xff,0x00,0x00,0x00,0x01,0x14,0x00,0x00,0x00,0x1c,0x00,0x00,0x00,0x1c,0x00,0x00,0x00,0x19,0x00,0x00,0x00,0x34,0x00,0x00,0x00,0x02,0x00,0x00,0x00,0xff,0xff,0xff,0xff,0x01,0x00,0x00,0x00,0x64,0xed,0xff,0xff,0x19,0x00,0x00,0x00,0x53,0x74,0x61,0x74,0x65,0x66,0x75,0x6c,0x50,0x61,0x72,0x74,0x69,0x74,0x69,0x6f,0x6e,0x65,0x64,0x43,0x61,0x6c,0x6c,0x3a,0x31,0x00,0x00,0x00,0x02,0x00,0x00,0x00,0x01,0x00,0x00,0x00,0x01,0x00,0x00,0x00,0x46,0xed,0xff,0xff,0x00,0x00,0x00,0x01,0x18,0x00,0x00,0x00,0x20,0x00,0x00,0x00,0x3c,0x00,0x00,0x00,0x18,0x00,0x00,0x00,0x00,0x00,0x00,0x09,0x50,0x00,0x00,0x00,0x02,0x00,0x00,0x00,0xff,0xff,0xff,0xff,0x01,0x00,0x00,0x00,0x2c,0xed,0xff,0xff,0x08,0x00,0x00,0x00,0x10,0x00,0x00,0x00,0x01,0x00,0x00,0x00,0x80,0xff,0xff,0xff,0xff,0xff,0xff,0xff,0x01,0x00,0x00,0x00,0x8e,0x41,0x12,0x3b,0x1a,0x00,0x00,0x00,0x53,0x74,0x61,0x74,0x65,0x66,0x75,0x6c,0x50,0x61,0x72,0x74,0x69,0x74,0x69,0x6f,0x6e,0x65,0x64,0x43,0x61,0x6c,0x6c,0x3a,0x31,0x31,0x00,0x00,0x02,0x00,0x00,0x00,0x01,0x00,0x00,0x00,0x01,0x00,0x00,0x00,0x00,0x00,0x16,0x00,0x1c,0x00,0x18,0x00,0x00,0x00,0x14,0x00,0x10,0x00,0x0c,0x00,0x00,0x00,0x00,0x00,0x08,0x00,0x07,0x00,0x16,0x00,0x00,0x00,0x00,0x00,0x00,0x01,0x14,0x00,0x00,0x00,0x1c,0x00,0x00,0x00,0x1c,0x00,0x00,0x00,0x17,0x00,0x00,0x00,0x34,0x00,0x00,0x00,0x02,0x00,0x00,0x00,0xff,0xff,0xff,0xff,0x01,0x00,0x00,0x00,0x4c,0xee,0xff,0xff,0x19,0x00,0x00,0x00,0x53,0x74,0x61,0x74,0x65,0x66,0x75,0x6c,0x50,0x61,0x72,0x74,0x69,0x74,0x69,0x6f,0x6e,0x65,0x64,0x43,0x61,0x6c,0x6c,0x3a,0x30,0x00,0x00,0x00,0x02,0x00,0x00,0x00,0x01,0x00,0x00,0x00,0x01,0x00,0x00,0x00,0x2e,0xee,0xff,0xff,0x00,0x00,0x00,0x01,0x18,0x00,0x00,0x00,0x20,0x00,0x00,0x00,0x3c,0x00,0x00,0x00,0x16,0x00,0x00,0x00,0x00,0x00,0x00,0x09,0x50,0x00,0x00,0x00,0x02,0x00,0x00,0x00,0xff,0xff,0xff,0xff,0x01,0x00,0x00,0x00,0x14,0xee,0xff,0xff,0x08,0x00,0x00,0x00,0x10,0x00,0x00,0x00,0x01,0x00,0x00,0x00,0x80,0xff,0xff,0xff,0xff,0xff,0xff,0xff,0x01,0x00,0x00,0x00,0x4c,0x40,0x10,0x3b,0x1a,0x00,0x00,0x00,0x53,0x74,0x61,0x74,0x65,0x66,0x75,0x6c,0x50,0x61,0x72,0x74,0x69,0x74,0x69,0x6f,0x6e,0x65,0x64,0x43,0x61,0x6c,0x6c,0x3a,0x30,0x31,0x00,0x00,0x02,0x00,0x00,0x00,0x01,0x00,0x00,0x00,0x01,0x00,0x00,0x00,0xa6,0xee,0xff,0xff,0x00,0x00,0x00,0x01,0x18,0x00,0x00,0x00,0x20,0x00,0x00,0x00,0x3c,0x00,0x00,0x00,0x15,0x00,0x00,0x00,0x00,0x00,0x00,0x09,0x64,0x00,0x00,0x00,0x02,0x00,0x00,0x00,0xff,0xff,0xff,0xff,0x0c,0x00,0x00,0x00,0x8c,0xee,0xff,0xff,0x08,0x00,0x00,0x00,0x10,0x00,0x00,0x00,0x01,0x00,0x00,0x00,0x80,0xff,0xff,0xff,0xff,0xff,0xff,0xff,0x01,0x00,0x00,0x00,0x3f,0x2c,0x9c,0x3a,0x2e,0x00,0x00,0x00,0x63,0x6e,0x6e,0x31,0x64,0x5f,0x77,0x69,0x6e,0x64,0x6f,0x77,0x32,0x34,0x74,0x6f,0x32,0x5f,0x75,0x6c,0x74,0x72,0x61,0x74,0x69,0x6e,0x79,0x5f,0x6d,0x75,0x6c,0x74,0x69,0x68,0x65,0x61,0x64,0x2f,0x67,0x61,0x70,0x2f,0x4d,0x65,0x61,0x6e,0x00,0x00,0x02,0x00,0x00,0x00,0x01,0x00,0x00,0x00,0x0c,0x00,0x00,0x00,0x32,0xef,0xff,0xff,0x00,0x00,0x00,0x01,0x18,0x00,0x00,0x00,0x24,0x00,0x00,0x00,0x40,0x00,0x00,0x00,0x14,0x00,0x00,0x00,0x00,0x00,0x00,0x09,0xa0,0x00,0x00,0x00,0x03,0x00,0x00,0x00,0xff,0xff,0xff,0xff,0x18,0x00,0x00,0x00,0x0c,0x00,0x00,0x00,0x1c,0xef,0xff,0xff,0x08,0x00,0x00,0x00,0x10,0x00,0x00,0x00,0x01,0x00,0x00,0x00,0x80,0xff,0xff,0xff,0xff,0xff,0xff,0xff,0x01,0x00,0x00,0x00,0x06,0x54,0xc3,0x3a,0x67,0x00,0x00,0x00,0x63,0x6e,0x6e,0x31,0x64,0x5f,0x77,0x69,0x6e,0x64,0x6f,0x77,0x32,0x34,0x74,0x6f,0x32,0x5f,0x75,0x6c,0x74,0x72,0x61,0x74,0x69,0x6e,0x79,0x5f,0x6d,0x75,0x6c,0x74,0x69,0x68,0x65,0x61,0x64,0x2f,0x64,0x77,0x63,0x6f,0x6e,0x76,0x2f,0x52,0x65,0x6c,0x75,0x3b,0x63,0x6e,0x6e,0x31,0x64,0x5f,0x77,0x69,0x6e,0x64,0x6f,0x77,0x32,0x34,0x74,0x6f,0x32,0x5f,0x75,0x6c,0x74,0x72,0x61,0x74,0x69,0x6e,0x79,0x5f,0x6d,0x75,0x6c,0x74,0x69,0x68,0x65,0x61,0x64,0x2f,0x64,0x77,0x63,0x6f,0x6e,0x76,0x2f,0x53,0x71,0x75,0x65,0x65,0x7a,0x65,0x31,0x00,0x03,0x00,0x00,0x00,0x01,0x00,0x00,0x00,0x18,0x00,0x00,0x00,0x0c,0x00,0x00,0x00,0xfe,0xef,0xff,0xff,0x00,0x00,0x00,0x01,0x18,0x00,0x00,0x00,0x28,0x00,0x00,0x00,0x48,0x00,0x00,0x00,0x13,0x00,0x00,0x00,0x00,0x00,0x00,0x09,0x58,0x01,0x00,0x00,0x04,0x00,0x00,0x00,0xff,0xff,0xff,0xff,0x01,0x00,0x00,0x00,0x18,0x00,0x00,0x00,0x0c,0x00,0x00,0x00,0xec,0xef,0xff,0xff,0x08,0x00,0x00,0x00,0x14,0x00,0x00,0x00,0x01,0x00,0x00,0x00,0x80,0xff,0xff,0xff,0xff,0xff,0xff,0xff,0x00,0x00,0x00,0x00,0x01,0x00,0x00,0x00,0x06,0x54,0xc3,0x3a,0x16,0x01,0x00,0x00,0x63,0x6e,0x6e,0x31,0x64,0x5f,0x77,0x69,0x6e,0x64,0x6f,0x77,0x32,0x34,0x74,0x6f,0x32,0x5f,0x75,0x6c,0x74,0x72,0x61,0x74,0x69,0x6e,0x79,0x5f,0x6d,0x75,0x6c,0x74,0x69,0x68,0x65,0x61,0x64,0x2f,0x64,0x77,0x63,0x6f,0x6e,0x76,0x2f,0x52,0x65,0x6c,0x75,0x3b,0x63,0x6e,0x6e,0x31,0x64,0x5f,0x77,0x69,0x6e,0x64,0x6f,0x77,0x32,0x34,0x74,0x6f,0x32,0x5f,0x75,0x6c,0x74,0x72,0x61,0x74,0x69,0x6e,0x79,0x5f,0x6d,0x75,0x6c,0x74,0x69,0x68,0x65,0x61,0x64,0x2f,0x64,0x77,0x63,0x6f,0x6e,0x76,0x2f,0x53,0x71,0x75,0x65,0x65,0x7a,0x65,0x3b,0x63,0x6e,0x6e,0x31,0x64,0x5f,0x77,0x69,0x6e,0x64,0x6f,0x77,0x32,0x34,0x74,0x6f,0x32,0x5f,0x75,0x6c,0x74,0x72,0x61,0x74,0x69,0x6e,0x79,0x5f,0x6d,0x75,0x6c,0x74,0x69,0x68,0x65,0x61,0x64,0x2f,0x64,0x77,0x63,0x6f,0x6e,0x76,0x2f,0x42,0x69,0x61,0x73,0x41,0x64,0x64,0x3b,0x63,0x6e,0x6e,0x31,0x64,0x5f,0x77,0x69,0x6e,0x64,0x6f,0x77,0x32,0x34,0x74,0x6f,0x32,0x5f,0x75,0x6c,0x74,0x72,0x61,0x74,0x69,0x6e,0x79,0x5f,0x6d,0x75,0x6c,0x74,0x69,0x68,0x65,0x61,0x64,0x2f,0x64,0x77,0x63,0x6f,0x6e,0x76,0x2f,0x64,0x65,0x70,0x74,0x68,0x77,0x69,0x73,0x65,0x3b,0x63,0x6e,0x6e,0x31,0x64,0x5f,0x77,0x69,0x6e,0x64,0x6f,0x77,0x32,0x34,0x74,0x6f,0x32,0x5f,0x75,0x6c,0x74,0x72,0x61,0x74,0x69,0x6e,0x79,0x5f,0x6d,0x75,0x6c,0x74,0x69,0x68,0x65,0x61,0x64,0x2f,0x64,0x77,0x63,0x6f,0x6e,0x76,0x2f,0x42,0x69,0x61,0x73,0x41,0x64,0x64,0x2f,0x52,0x65,0x61,0x64,0x56,0x61,0x72,0x69,0x61,0x62,0x6c,0x65,0x4f,0x70,0x00,0x00,0x04,0x00,0x00,0x00,0x01,0x00,0x00,0x00,0x01,0x00,0x00,0x00,0x18,0x00,0x00,0x00,0x0c,0x00,0x00,0x00,0x86,0xf1,0xff,0xff,0x00,0x00,0x00,0x01,0x18,0x00,0x00,0x00,0x28,0x00,0x00,0x00,0x44,0x00,0x00,0x00,0x12,0x00,0x00,0x00,0x00,0x00,0x00,0x09,0x74,0x00,0x00,0x00,0x04,0x00,0x00,0x00,0xff,0xff,0xff,0xff,0x01,0x00,0x00,0x00,0x18,0x00,0x00,0x00,0x0c,0x00,0x00,0x00,0x74,0xf1,0xff,0xff,0x08,0x00,0x00,0x00,0x10,0x00,0x00,0x00,0x01,0x00,0x00,0x00,0x80,0xff,0xff,0xff,0xff,0xff,0xff,0xff,0x01,0x00,0x00,0x00,0x8e,0x23,0x5d,0x3b,0x37,0x00,0x00,0x00,0x63,0x6e,0x6e,0x31,0x64,0x5f,0x77,0x69,0x6e,0x64,0x6f,0x77,0x32,0x34,0x74,0x6f,0x32,0x5f,0x75,0x6c,0x74,0x72,0x61,0x74,0x69,0x6e,0x79,0x5f,0x6d,0x75,0x6c,0x74,0x69,0x68,0x65,0x61,0x64,0x2f,0x64,0x77,0x63,0x6f,0x6e,0x76,0x2f,0x45,0x78,0x70,0x61,0x6e,0x64,0x44,0x69,0x6d,0x73,0x00,0x04,0x00,0x00,0x00,0x01,0x00,0x00,0x00,0x01,0x00,0x00,0x00,0x18,0x00,0x00,0x00,0x0c,0x00,0x00,0x00,0x2a,0xf2,0xff,0xff,0x00,0x00,0x00,0x01,0x18,0x00,0x00,0x00,0x24,0x00,0x00,0x00,0x44,0x00,0x00,0x00,0x11,0x00,0x00,0x00,0x00,0x00,0x00,0x09,0xa8,0x00,0x00,0x00,0x03,0x00,0x00,0x00,0xff,0xff,0xff,0xff,0x18,0x00,0x00,0x00,0x0c,0x00,0x00,0x00,0x14,0xf2,0xff,0xff,0x08,0x00,0x00,0x00,0x14,0x00,0x00,0x00,0x01,0x00,0x00,0x00,0x80,0xff,0xff,0xff,0xff,0xff,0xff,0xff,0x00,0x00,0x00,0x00,0x01,0x00,0x00,0x00,0x8e,0x23,0x5d,0x3b,0x6a,0x00,0x00,0x00,0x63,0x6e,0x6e,0x31,0x64,0x5f,0x77,0x69,0x6e,0x64,0x6f,0x77,0x32,0x34,0x74,0x6f,0x32,0x5f,0x75,0x6c,0x74,0x72,0x61,0x74,0x69,0x6e,0x79,0x5f,0x6d,0x75,0x6c,0x74,0x69,0x68,0x65,0x61,0x64,0x2f,0x73,0x65,0x70,0x63,0x6f,0x6e,0x76,0x31,0x2f,0x52,0x65,0x6c,0x75,0x3b,0x63,0x6e,0x6e,0x31,0x64,0x5f,0x77,0x69,0x6e,0x64,0x6f,0x77,0x32,0x34,0x74,0x6f,0x32,0x5f,0x75,0x6c,0x74,0x72,0x61,0x74,0x69,0x6e,0x79,0x5f,0x6d,0x75,0x6c,0x74,0x69,0x68,0x65,0x61,0x64,0x2f,0x73,0x65,0x70,0x63,0x6f,0x6e,0x76,0x31,0x2f,0x53,0x71,0x75,0x65,0x65,0x7a,0x65,0x00,0x00,0x03,0x00,0x00,0x00,0x01,0x00,0x00,0x00,0x18,0x00,0x00,0x00,0x0c,0x00,0x00,0x00,0xfe,0xf2,0xff,0xff,0x00,0x00,0x00,0x01,0x18,0x00,0x00,0x00,0x28,0x00,0x00,0x00,0x48,0x00,0x00,0x00,0x10,0x00,0x00,0x00,0x00,0x00,0x00,0x09,0xa0,0x01,0x00,0x00,0x04,0x00,0x00,0x00,0xff,0xff,0xff,0xff,0x01,0x00,0x00,0x00,0x18,0x00,0x00,0x00,0x0c,0x00,0x00,0x00,0xec,0xf2,0xff,0xff,0x08,0x00,0x00,0x00,0x14,0x00,0x00,0x00,0x01,0x00,0x00,0x00,0x80,0xff,0xff,0xff,0xff,0xff,0xff,0xff,0x00,0x00,0x00,0x00,0x01,0x00,0x00,0x00,0x8e,0x23,0x5d,0x3b,0x5e,0x01,0x00,0x00,0x63,0x6e,0x6e,0x31,0x64,0x5f,0x77,0x69,0x6e,0x64,0x6f,0x77,0x32,0x34,0x74,0x6f,0x32,0x5f,0x75,0x6c,0x74,0x72,0x61,0x74,0x69,0x6e,0x79,0x5f,0x6d,0x75,0x6c,0x74,0x69,0x68,0x65,0x61,0x64,0x2f,0x73,0x65,0x70,0x63,0x6f,0x6e,0x76,0x31,0x2f,0x52,0x65,0x6c,0x75,0x3b,0x63,0x6e,0x6e,0x31,0x64,0x5f,0x77,0x69,0x6e,0x64,0x6f,0x77,0x32,0x34,0x74,0x6f,0x32,0x5f,0x75,0x6c,0x74,0x72,0x61,0x74,0x69,0x6e,0x79,0x5f,0x6d,0x75,0x6c,0x74,0x69,0x68,0x65,0x61,0x64,0x2f,0x73,0x65,0x70,0x63,0x6f,0x6e,0x76,0x31,0x2f,0x53,0x71,0x75,0x65,0x65,0x7a,0x65,0x3b,0x63,0x6e,0x6e,0x31,0x64,0x5f,0x77,0x69,0x6e,0x64,0x6f,0x77,0x32,0x34,0x74,0x6f,0x32,0x5f,0x75,0x6c,0x74,0x72,0x61,0x74,0x69,0x6e,0x79,0x5f,0x6d,0x75,0x6c,0x74,0x69,0x68,0x65,0x61,0x64,0x2f,0x73,0x65,0x70,0x63,0x6f,0x6e,0x76,0x31,0x2f,0x42,0x69,0x61,0x73,0x41,0x64,0x64,0x3b,0x63,0x6e,0x6e,0x31,0x64,0x5f,0x77,0x69,0x6e,0x64,0x6f,0x77,0x32,0x34,0x74,0x6f,0x32,0x5f,0x75,0x6c,0x74,0x72,0x61,0x74,0x69,0x6e,0x79,0x5f,0x6d,0x75,0x6c,0x74,0x69,0x68,0x65,0x61,0x64,0x2f,0x64,0x77,0x63,0x6f,0x6e,0x76,0x2f,0x64,0x65,0x70,0x74,0x68,0x77,0x69,0x73,0x65,0x3b,0x63,0x6e,0x6e,0x31,0x64,0x5f,0x77,0x69,0x6e,0x64,0x6f,0x77,0x32,0x34,0x74,0x6f,0x32,0x5f,0x75,0x6c,0x74,0x72,0x61,0x74,0x69,0x6e,0x79,0x5f,0x6d,0x75,0x6c,0x74,0x69,0x68,0x65,0x61,0x64,0x2f,0x73,0x65,0x70,0x63,0x6f,0x6e,0x76,0x31,0x2f,0x73,0x65,0x70,0x61,0x72,0x61,0x62,0x6c,0x65,0x5f,0x63,0x6f,0x6e,0x76,0x32,0x64,0x3b,0x63,0x6e,0x6e,0x31,0x64,0x5f,0x77,0x69,0x6e,0x64,0x6f,0x77,0x32,0x34,0x74,0x6f,0x32,0x5f,0x75,0x6c,0x74,0x72,0x61,0x74,0x69,0x6e,0x79,0x5f,0x6d,0x75,0x6c,0x74,0x69,0x68,0x65,0x61,0x64,0x2f,0x73,0x65,0x70,0x63,0x6f,0x6e,0x76,0x31,0x2f,0x42,0x69,0x61,0x73,0x41,0x64,0x64,0x2f,0x52,0x65,0x61,0x64,0x56,0x61,0x72,0x69,0x61,0x62,0x6c,0x65,0x4f,0x70,0x00,0x00,0x04,0x00,0x00,0x00,0x01,0x00,0x00,0x00,0x01,0x00,0x00,0x00,0x18,0x00,0x00,0x00,0x0c,0x00,0x00,0x00,0xce,0xf4,0xff,0xff,0x00,0x00,0x00,0x01,0x18,0x00,0x00,0x00,0x28,0x00,0x00,0x00,0x44,0x00,0x00,0x00,0x0f,0x00,0x00,0x00,0x00,0x00,0x00,0x09,0x88,0x00,0x00,0x00,0x04,0x00,0x00,0x00,0xff,0xff,0xff,0xff,0x01,0x00,0x00,0x00,0x18,0x00,0x00,0x00,0x0c,0x00,0x00,0x00,0xbc,0xf4,0xff,0xff,0x08,0x00,0x00,0x00,0x10,0x00,0x00,0x00,0x01,0x00,0x00,0x00,0xfc,0xff,0xff,0xff,0xff,0xff,0xff,0xff,0x01,0x00,0x00,0x00,0xf4,0x7f,0xdc,0x3b,0x4a,0x00,0x00,0x00,0x63,0x6e,0x6e,0x31,0x64,0x5f,0x77,0x69,0x6e,0x64,0x6f,0x77,0x32,0x34,0x74,0x6f,0x32,0x5f,0x75,0x6c,0x74,0x72,0x61,0x74,0x69,0x6e,0x79,0x5f,0x6d,0x75,0x6c,0x74,0x69,0x68,0x65,0x61,0x64,0x2f,0x73,0x65,0x70,0x63,0x6f,0x6e,0x76,0x31,0x2f,0x73,0x65,0x70,0x61,0x72,0x61,0x62,0x6c,0x65,0x5f,0x63,0x6f,0x6e,0x76,0x32,0x64,0x2f,0x64,0x65,0x70,0x74,0x68,0x77,0x69,0x73,0x65,0x31,0x00,0x00,0x04,0x00,0x00,0x00,0x01,0x00,0x00,0x00,0x01,0x00,0x00,0x00,0x18,0x00,0x00,0x00,0x0c,0x00,0x00,0x00,0x86,0xf5,0xff,0xff,0x00,0x00,0x00,0x01,0x18,0x00,0x00,0x00,0x28,0x00,0x00,0x00,0x48,0x00,0x00,0x00,0x0e,0x00,0x00,0x00,0x00,0x00,0x00,0x09,0x7c,0x00,0x00,0x00,0x04,0x00,0x00,0x00,0xff,0xff,0xff,0xff,0x01,0x00,0x00,0x00,0x18,0x00,0x00,0x00,0x0c,0x00,0x00,0x00,0x74,0xf5,0xff,0xff,0x08,0x00,0x00,0x00,0x14,0x00,0x00,0x00,0x01,0x00,0x00,0x00,0x80,0xff,0xff,0xff,0xff,0xff,0xff,0xff,0x00,0x00,0x00,0x00,0x01,0x00,0x00,0x00,0x81,0x80,0x80,0x3b,0x39,0x00,0x00,0x00,0x63,0x6e,0x6e,0x31,0x64,0x5f,0x77,0x69,0x6e,0x64,0x6f,0x77,0x32,0x34,0x74,0x6f,0x32,0x5f,0x75,0x6c,0x74,0x72,0x61,0x74,0x69,0x6e,0x79,0x5f,0x6d,0x75,0x6c,0x74,0x69,0x68,0x65,0x61,0x64,0x2f,0x73,0x65,0x70,0x63,0x6f,0x6e,0x76,0x31,0x2f,0x45,0x78,0x70,0x61,0x6e,0x64,0x44,0x69,0x6d,0x73,0x00,0x00,0x00,0x04,0x00,0x00,0x00,0x01,0x00,0x00,0x00,0x01,0x00,0x00,0x00,0x18,0x00,0x00,0x00,0x0c,0x00,0x00,0x00,0xb2,0xf6,0xff,0xff,0x00,0x00,0x00,0x01,0x14,0x00,0x00,0x00,0xbc,0x00,0x00,0x00,0x0d,0x00,0x00,0x00,0x00,0x00,0x00,0x09,0x00,0x01,0x00,0x00,0x9a,0xfb,0xff,0xff,0x03,0x00,0x00,0x00,0x08,0x00,0x00,0x00,0x6c,0x00,0x00,0x00,0x0c,0x00,0x00,0x00,0x00,0x00,0x00,0x00,0x00,0x00,0x00,0x00,0x00,0x00,0x00,0x00,0x00,0x00,0x00,0x00,0x00,0x00,0x00,0x00,0x00,0x00,0x00,0x00,0x00,0x00,0x00,0x00,0x00,0x00,0x00,0x00,0x00,0x00,0x00,0x00,0x00,0x00,0x00,0x00,0x00,0x00,0x00,0x00,0x00,0x00,0x00,0x00,0x00,0x00,0x00,0x00,0x00,0x00,0x00,0x00,0x00,0x00,0x00,0x00,0x00,0x00,0x00,0x00,0x00,0x00,0x00,0x00,0x00,0x00,0x00,0x00,0x00,0x00,0x00,0x00,0x00,0x00,0x00,0x00,0x00,0x00,0x00,0x00,0x00,0x00,0x00,0x00,0x00,0x00,0x00,0x00,0x00,0x00,0x00,0x00,0x00,0x00,0x00,0x00,0x0c,0x00,0x00,0x00,0x3a,0xc5,0x57,0x3b,0x02,0xc0,0xff,0x3a,0x64,0xb6,0x93,0x3a,0xf4,0x96,0x16,0x3b,0x31,0xfa,0x2d,0x3b,0x63,0x9c,0x30,0x3b,0xa2,0x66,0x4e,0x3b,0x99,0x20,0x55,0x3b,0x88,0x83,0x5e,0x3b,0xe5,0x8b,0xbc,0x3a,0x15,0x9e,0x5e,0x3b,0x0a,0xcf,0x12,0x3b,0x49,0x00,0x00,0x00,0x63,0x6e,0x6e,0x31,0x64,0x5f,0x77,0x69,0x6e,0x64,0x6f,0x77,0x32,0x34,0x74,0x6f,0x32,0x5f,0x75,0x6c,0x74,0x72,0x61,0x74,0x69,0x6e,0x79,0x5f,0x6d,0x75,0x6c,0x74,0x69,0x68,0x65,0x61,0x64,0x2f,0x73,0x65,0x70,0x63,0x6f,0x6e,0x76,0x31,0x2f,0x73,0x65,0x70,0x61,0x72,0x61,0x62,0x6c,0x65,0x5f,0x63,0x6f,0x6e,0x76,0x32,0x64,0x2f,0x64,0x65,0x70,0x74,0x68,0x77,0x69,0x73,0x65,0x00,0x00,0x00,0x04,0x00,0x00,0x00,0x01,0x00,0x00,0x00,0x01,0x00,0x00,0x00,0x03,0x00,0x00,0x00,0x0c,0x00,0x00,0x00,0xde,0xf7,0xff,0xff,0x00,0x00,0x00,0x01,0x14,0x00,0x00,0x00,0xb8,0x00,0x00,0x00,0x0c,0x00,0x00,0x00,0x00,0x00,0x00,0x02,0xe8,0x00,0x00,0x00,0x34,0xf7,0xff,0xff,0x08,0x00,0x00,0x00,0x6c,0x00,0x00,0x00,0x0c,0x00,0x00,0x00,0x00,0x00,0x00,0x00,0x00,0x00,0x00,0x00,0x00,0x00,0x00,0x00,0x00,0x00,0x00,0x00,0x00,0x00,0x00,0x00,0x00,0x00,0x00,0x00,0x00,0x00,0x00,0x00,0x00,0x00,0x00,0x00,0x00,0x00,0x00,0x00,0x00,0x00,0x00,0x00,0x00,0x00,0x00,0x00,0x00,0x00,0x00,0x00,0x00,0x00,0x00,0x00,0x00,0x00,0x00,0x00,0x00,0x00,0x00,0x00,0x00,0x00,0x00,0x00,0x00,0x00,0x00,0x00,0x00,0x00,0x00,0x00,0x00,0x00,0x00,0x00,0x00,0x00,0x00,0x00,0x00,0x00,0x00,0x00,0x00,0x00,0x00,0x00,0x00,0x00,0x00,0x00,0x00,0x00,0x00,0x00,0x00,0x00,0x00,0x00,0x0c,0x00,0x00,0x00,0xd9,0x9d,0x58,0x37,0x62,0x60,0x00,0x37,0xaf,0x4a,0x94,0x36,0x23,0x2e,0x17,0x37,0xdb,0xa8,0x2e,0x37,0xb1,0x4d,0x31,0x37,0xd9,0x35,0x4f,0x37,0x90,0xf6,0x55,0x37,0xec,0x62,0x5f,0x37,0x2f,0x49,0xbd,0x36,0x93,0x7d,0x5f,0x37,0x6d,0x62,0x13,0x37,0x36,0x00,0x00,0x00,0x63,0x6e,0x6e,0x31,0x64,0x5f,0x77,0x69,0x6e,0x64,0x6f,0x77,0x32,0x34,0x74,0x6f,0x32,0x5f,0x75,0x6c,0x74,0x72,0x61,0x74,0x69,0x6e,0x79,0x5f,0x6d,0x75,0x6c,0x74,0x69,0x68,0x65,0x61,0x64,0x2f,0x64,0x77,0x63,0x6f,0x6e,0x76,0x2f,0x64,0x65,0x70,0x74,0x68,0x77,0x69,0x73,0x65,0x00,0x00,0x01,0x00,0x00,0x00,0x0c,0x00,0x00,0x00,0xe6,0xf8,0xff,0xff,0x00,0x00,0x00,0x01,0x14,0x00,0x00,0x00,0xb4,0x00,0x00,0x00,0x0b,0x00,0x00,0x00,0x00,0x00,0x00,0x09,0xec,0x00,0x00,0x00,0x3c,0xf8,0xff,0xff,0x08,0x00,0x00,0x00,0x68,0x00,0x00,0x00,0x0c,0x00,0x00,0x00,0x00,0x00,0x00,0x00,0x00,0x00,0x00,0x00,0x00,0x00,0x00,0x00,0x00,0x00,0x00,0x00,0x00,0x00,0x00,0x00,0x00,0x00,0x00,0x00,0x00,0x00,0x00,0x00,0x00,0x00,0x00,0x00,0x00,0x00,0x00,0x00,0x00,0x00,0x00,0x00,0x00,0x00,0x00,0x00,0x00,0x00,0x00,0x00,0x00,0x00,0x00,0x00,0x00,0x00,0x00,0x00,0x00,0x00,0x00,0x00,0x00,0x00,0x00,0x00,0x00,0x00,0x00,0x00,0x00,0x00,0x00,0x00,0x00,0x00,0x00,0x00,0x00,0x00,0x00,0x00,0x00,0x00,0x00,0x00,0x00,0x00,0x00,0x00,0x00,0x00,0x00,0x00,0x00,0x00,0x00,0x00,0x0c,0x00,0x00,0x00,0xcf,0x14,0x67,0x3b,0x28,0x22,0x20,0x3b,0x2b,0xff,0x7c,0x3b,0x9d,0xa2,0x79,0x3b,0xc6,0x53,0x81,0x3b,0x73,0x9a,0x22,0x3b,0x7b,0x2a,0x6d,0x3b,0xcd,0x21,0x32,0x3b,0x27,0x98,0xe7,0x3a,0x82,0x53,0x3c,0x3b,0x6a,0x8f,0x84,0x3b,0x88,0x83,0x8a,0x3b,0x3f,0x00,0x00,0x00,0x63,0x6e,0x6e,0x31,0x64,0x5f,0x77,0x69,0x6e,0x64,0x6f,0x77,0x32,0x34,0x74,0x6f,0x32,0x5f,0x75,0x6c,0x74,0x72,0x61,0x74,0x69,0x6e,0x79,0x5f,0x6d,0x75,0x6c,0x74,0x69,0x68,0x65,0x61,0x64,0x2f,0x73,0x65,0x70,0x63,0x6f,0x6e,0x76,0x31,0x2f,0x73,0x65,0x70,0x61,0x72,0x61,0x62,0x6c,0x65,0x5f,0x63,0x6f,0x6e,0x76,0x32,0x64,0x00,0x04,0x00,0x00,0x00,0x0c,0x00,0x00,0x00,0x01,0x00,0x00,0x00,0x01,0x00,0x00,0x00,0x0c,0x00,0x00,0x00,0xfe,0xf9,0xff,0xff,0x00,0x00,0x00,0x01,0x14,0x00,0x00,0x00,0xb8,0x00,0x00,0x00,0x0a,0x00,0x00,0x00,0x00,0x00,0x00,0x02,0xf8,0x00,0x00,0x00,0x54,0xf9,0xff,0xff,0x08,0x00,0x00,0x00,0x6c,0x00,0x00,0x00,0x0c,0x00,0x00,0x00,0x00,0x00,0x00,0x00,0x00,0x00,0x00,0x00,0x00,0x00,0x00,0x00,0x00,0x00,0x00,0x00,0x00,0x00,0x00,0x00,0x00,0x00,0x00,0x00,0x00,0x00,0x00,0x00,0x00,0x00,0x00,0x00,0x00,0x00,0x00,0x00,0x00,0x00,0x00,0x00,0x00,0x00,0x00,0x00,0x00,0x00,0x00,0x00,0x00,0x00,0x00,0x00,0x00,0x00,0x00,0x00,0x00,0x00,0x00,0x00,0x00,0x00,0x00,0x00,0x00,0x00,0x00,0x00,0x00,0x00,0x00,0x00,0x00,0x00,0x00,0x00,0x00,0x00,0x00,0x00,0x00,0x00,0x00,0x00,0x00,0x00,0x00,0x00,0x00,0x00,0x00,0x00,0x00,0x00,0x00,0x00,0x00,0x00,0x00,0x00,0x0c,0x00,0x00,0x00,0x61,0x09,0xc7,0x37,0x64,0xed,0x89,0x37,0xbd,0xe9,0xd9,0x37,0x85,0x04,0xd7,0x37,0x44,0xc9,0xde,0x37,0x00,0x0e,0x8c,0x37,0x0c,0x47,0xcc,0x37,0x15,0x6e,0x99,0x37,0x83,0x7a,0x47,0x37,0xe5,0x35,0xa2,0x37,0x01,0x5b,0xe4,0x37,0x88,0x9c,0xee,0x37,0x45,0x00,0x00,0x00,0x63,0x6e,0x6e,0x31,0x64,0x5f,0x77,0x69,0x6e,0x64,0x6f,0x77,0x32,0x34,0x74,0x6f,0x32,0x5f,0x75,0x6c,0x74,0x72,0x61,0x74,0x69,0x6e,0x79,0x5f,0x6d,0x75,0x6c,0x74,0x69,0x68,0x65,0x61,0x64,0x2f,0x73,0x65,0x70,0x63,0x6f,0x6e,0x76,0x31,0x2f,0x42,0x69,0x61,0x73,0x41,0x64,0x64,0x2f,0x52,0x65,0x61,0x64,0x56,0x61,0x72,0x69,0x61,0x62,0x6c,0x65,0x4f,0x70,0x00,0x00,0x00,0x01,0x00,0x00,0x00,0x0c,0x00,0x00,0x00,0x16,0xfb,0xff,0xff,0x00,0x00,0x00,0x01,0x28,0x00,0x00,0x00,0xcc,0x00,0x00,0x00,0x09,0x00,0x00,0x00,0x00,0x00,0x00,0x09,0xfc,0x00,0x00,0x00,0x00,0x00,0x12,0x00,0x10,0x00,0x00,0x00,0x00,0x00,0x0c,0x00,0x08,0x00,0x00,0x00,0x00,0x00,0x04,0x00,0x12,0x00,0x00,0x00,0x03,0x00,0x00,0x00,0x08,0x00,0x00,0x00,0x68,0x00,0x00,0x00,0x0c,0x00,0x00,0x00,0x00,0x00,0x00,0x00,0x00,0x00,0x00,0x00,0x00,0x00,0x00,0x00,0x00,0x00,0x00,0x00,0x00,0x00,0x00,0x00,0x00,0x00,0x00,0x00,0x00,0x00,0x00,0x00,0x00,0x00,0x00,0x00,0x00,0x00,0x00,0x00,0x00,0x00,0x00,0x00,0x00,0x00,0x00,0x00,0x00,0x00,0x00,0x00,0x00,0x00,0x00,0x00,0x00,0x00,0x00,0x00,0x00,0x00,0x00,0x00,0x00,0x00,0x00,0x00,0x00,0x00,0x00,0x00,0x00,0x00,0x00,0x00,0x00,0x00,0x00,0x00,0x00,0x00,0x00,0x00,0x00,0x00,0x00,0x00,0x00,0x00,0x00,0x00,0x00,0x00,0x00,0x00,0x00,0x00,0x00,0x00,0x0c,0x00,0x00,0x00,0x6f,0x50,0x3f,0x3b,0x08,0x54,0xe7,0x3a,0xbe,0xde,0x12,0x3b,0xc8,0x40,0xcf,0x3a,0xad,0x0c,0x31,0x3b,0x90,0x3f,0xa0,0x3a,0x84,0xa3,0x18,0x3b,0xee,0xf6,0x16,0x3a,0x2b,0x5b,0x6f,0x3a,0x98,0xe3,0xce,0x3a,0xb1,0x55,0x4e,0x3b,0xff,0xbb,0x18,0x3b,0x37,0x00,0x00,0x00,0x63,0x6e,0x6e,0x31,0x64,0x5f,0x77,0x69,0x6e,0x64,0x6f,0x77,0x32,0x34,0x74,0x6f,0x32,0x5f,0x75,0x6c,0x74,0x72,0x61,0x74,0x69,0x6e,0x79,0x5f,0x6d,0x75,0x6c,0x74,0x69,0x68,0x65,0x61,0x64,0x2f,0x64,0x77,0x63,0x6f,0x6e,0x76,0x2f,0x64,0x65,0x70,0x74,0x68,0x77,0x69,0x73,0x65,0x31,0x00,0x04,0x00,0x00,0x00,0x01,0x00,0x00,0x00,0x01,0x00,0x00,0x00,0x03,0x00,0x00,0x00,0x0c,0x00,0x00,0x00,0x3e,0xfc,0xff,0xff,0x00,0x00,0x00,0x01,0x14,0x00,0x00,0x00,0xb4,0x00,0x00,0x00,0x08,0x00,0x00,0x00,0x00,0x00,0x00,0x02,0xf0,0x00,0x00,0x00,0x94,0xfb,0xff,0xff,0x08,0x00,0x00,0x00,0x68,0x00,0x00,0x00,0x0c,0x00,0x00,0x00,0x00,0x00,0x00,0x00,0x00,0x00,0x00,0x00,0x00,0x00,0x00,0x00,0x00,0x00,0x00,0x00,0x00,0x00,0x00,0x00,0x00,0x00,0x00,0x00,0x00,0x00,0x00,0x00,0x00,0x00,0x00,0x00,0x00,0x00,0x00,0x00,0x00,0x00,0x00,0x00,0x00,0x00,0x00,0x00,0x00,0x00,0x00,0x00,0x00,0x00,0x00,0x00,0x00,0x00,0x00,0x00,0x00,0x00,0x00,0x00,0x00,0x00,0x00,0x00,0x00,0x00,0x00,0x00,0x00,0x00,0x00,0x00,0x00,0x00,0x00,0x00,0x00,0x00,0x00,0x00,0x00,0x00,0x00,0x00,0x00,0x00,0x00,0x00,0x00,0x00,0x00,0x00,0x00,0x00,0x00,0x00,0x0c,0x00,0x00,0x00,0x02,0x43,0x25,0x37,0xac,0xd3,0xc7,0x36,0x60,0xbd,0xfd,0x36,0xb5,0x07,0xb3,0x36,0x88,0xf0,0x18,0x37,0x21,0x6d,0x8a,0x36,0x5c,0xda,0x03,0x37,0x23,0x68,0x02,0x36,0xf2,0xc2,0x4e,0x36,0x36,0xb7,0xb2,0x36,0xa2,0x3c,0x32,0x37,0x82,0xef,0x03,0x37,0x43,0x00,0x00,0x00,0x63,0x6e,0x6e,0x31,0x64,0x5f,0x77,0x69,0x6e,0x64,0x6f,0x77,0x32,0x34,0x74,0x6f,0x32,0x5f,0x75,0x6c,0x74,0x72,0x61,0x74,0x69,0x6e,0x79,0x5f,0x6d,0x75,0x6c,0x74,0x69,0x68,0x65,0x61,0x64,0x2f,0x64,0x77,0x63,0x6f,0x6e,0x76,0x2f,0x42,0x69,0x61,0x73,0x41,0x64,0x64,0x2f,0x52,0x65,0x61,0x64,0x56,0x61,0x72,0x69,0x61,0x62,0x6c,0x65,0x4f,0x70,0x00,0x01,0x00,0x00,0x00,0x0c,0x00,0x00,0x00,0x4e,0xfd,0xff,0xff,0x00,0x00,0x00,0x01,0x14,0x00,0x00,0x00,0x30,0x00,0x00,0x00,0x07,0x00,0x00,0x00,0x00,0x00,0x00,0x09,0x5c,0x00,0x00,0x00,0xa4,0xfc,0xff,0xff,0x08,0x00,0x00,0x00,0x10,0x00,0x00,0x00,0x01,0x00,0x00,0x00,0x00,0x00,0x00,0x00,0x00,0x00,0x00,0x00,0x01,0x00,0x00,0x00,0x5c,0x4b,0xcb,0x3b,0x33,0x00,0x00,0x00,0x63,0x6e,0x6e,0x31,0x64,0x5f,0x77,0x69,0x6e,0x64,0x6f,0x77,0x32,0x34,0x74,0x6f,0x32,0x5f,0x75,0x6c,0x74,0x72,0x61,0x74,0x69,0x6e,0x79,0x5f,0x6d,0x75,0x6c,0x74,0x69,0x68,0x65,0x61,0x64,0x2f,0x68,0x65,0x61,0x64,0x5f,0x48,0x2f,0x4d,0x61,0x74,0x4d,0x75,0x6c,0x00,0x02,0x00,0x00,0x00,0x01,0x00,0x00,0x00,0x0c,0x00,0x00,0x00,0xce,0xfd,0xff,0xff,0x00,0x00,0x00,0x01,0x14,0x00,0x00,0x00,0x34,0x00,0x00,0x00,0x06,0x00,0x00,0x00,0x00,0x00,0x00,0x02,0x70,0x00,0x00,0x00,0x24,0xfd,0xff,0xff,0x08,0x00,0x00,0x00,0x14,0x00,0x00,0x00,0x01,0x00,0x00,0x00,0x00,0x00,0x00,0x00,0x00,0x00,0x00,0x00,0x00,0x00,0x00,0x00,0x01,0x00,0x00,0x00,0x1e,0x0a,0xf8,0x36,0x43,0x00,0x00,0x00,0x63,0x6e,0x6e,0x31,0x64,0x5f,0x77,0x69,0x6e,0x64,0x6f,0x77,0x32,0x34,0x74,0x6f,0x32,0x5f,0x75,0x6c,0x74,0x72,0x61,0x74,0x69,0x6e,0x79,0x5f,0x6d,0x75,0x6c,0x74,0x69,0x68,0x65,0x61,0x64,0x2f,0x68,0x65,0x61,0x64,0x5f,0x48,0x2f,0x42,0x69,0x61,0x73,0x41,0x64,0x64,0x2f,0x52,0x65,0x61,0x64,0x56,0x61,0x72,0x69,0x61,0x62,0x6c,0x65,0x4f,0x70,0x00,0x01,0x00,0x00,0x00,0x01,0x00,0x00,0x00,0x5e,0xfe,0xff,0xff,0x00,0x00,0x00,0x01,0x14,0x00,0x00,0x00,0x30,0x00,0x00,0x00,0x05,0x00,0x00,0x00,0x00,0x00,0x00,0x09,0x5c,0x00,0x00,0x00,0xb4,0xfd,0xff,0xff,0x08,0x00,0x00,0x00,0x10,0x00,0x00,0x00,0x01,0x00,0x00,0x00,0x00,0x00,0x00,0x00,0x00,0x00,0x00,0x00,0x01,0x00,0x00,0x00,0x99,0x7c,0xb4,0x3b,0x33,0x00,0x00,0x00,0x63,0x6e,0x6e,0x31,0x64,0x5f,0x77,0x69,0x6e,0x64,0x6f,0x77,0x32,0x34,0x74,0x6f,0x32,0x5f,0x75,0x6c,0x74,0x72,0x61,0x74,0x69,0x6e,0x79,0x5f,0x6d,0x75,0x6c,0x74,0x69,0x68,0x65,0x61,0x64,0x2f,0x68,0x65,0x61,0x64,0x5f,0x54,0x2f,0x4d,0x61,0x74,0x4d,0x75,0x6c,0x00,0x02,0x00,0x00,0x00,0x01,0x00,0x00,0x00,0x0c,0x00,0x00,0x00,0xde,0xfe,0xff,0xff,0x00,0x00,0x00,0x01,0x14,0x00,0x00,0x00,0x30,0x00,0x00,0x00,0x04,0x00,0x00,0x00,0x00,0x00,0x00,0x02,0x6c,0x00,0x00,0x00,0x34,0xfe,0xff,0xff,0x08,0x00,0x00,0x00,0x10,0x00,0x00,0x00,0x01,0x00,0x00,0x00,0x00,0x00,0x00,0x00,0x00,0x00,0x00,0x00,0x01,0x00,0x00,0x00,0x3e,0x36,0xdc,0x36,0x43,0x00,0x00,0x00,0x63,0x6e,0x6e,0x31,0x64,0x5f,0x77,0x69,0x6e,0x64,0x6f,0x77,0x32,0x34,0x74,0x6f,0x32,0x5f,0x75,0x6c,0x74,0x72,0x61,0x74,0x69,0x6e,0x79,0x5f,0x6d,0x75,0x6c,0x74,0x69,0x68,0x65,0x61,0x64,0x2f,0x68,0x65,0x61,0x64,0x5f,0x54,0x2f,0x42,0x69,0x61,0x73,0x41,0x64,0x64,0x2f,0x52,0x65,0x61,0x64,0x56,0x61,0x72,0x69,0x61,0x62,0x6c,0x65,0x4f,0x70,0x00,0x01,0x00,0x00,0x00,0x01,0x00,0x00,0x00,0x6a,0xff,0xff,0xff,0x00,0x00,0x00,0x01,0x14,0x00,0x00,0x00,0x14,0x00,0x00,0x00,0x03,0x00,0x00,0x00,0x00,0x00,0x00,0x02,0x74,0x00,0x00,0x00,0x54,0xff,0xff,0xff,0x66,0x00,0x00,0x00,0x63,0x6e,0x6e,0x31,0x64,0x5f,0x77,0x69,0x6e,0x64,0x6f,0x77,0x32,0x34,0x74,0x6f,0x32,0x5f,0x75,0x6c,0x74,0x72,0x61,0x74,0x69,0x6e,0x79,0x5f,0x6d,0x75,0x6c,0x74,0x69,0x68,0x65,0x61,0x64,0x2f,0x64,0x77,0x63,0x6f,0x6e,0x76,0x2f,0x52,0x65,0x6c,0x75,0x3b,0x63,0x6e,0x6e,0x31,0x64,0x5f,0x77,0x69,0x6e,0x64,0x6f,0x77,0x32,0x34,0x74,0x6f,0x32,0x5f,0x75,0x6c,0x74,0x72,0x61,0x74,0x69,0x6e,0x79,0x5f,0x6d,0x75,0x6c,0x74,0x69,0x68,0x65,0x61,0x64,0x2f,0x64,0x77,0x63,0x6f,0x6e,0x76,0x2f,0x53,0x71,0x75,0x65,0x65,0x7a,0x65,0x00,0x00,0x01,0x00,0x00,0x00,0x03,0x00,0x00,0x00,0x00,0x00,0x16,0x00,0x1c,0x00,0x18,0x00,0x17,0x00,0x10,0x00,0x0c,0x00,0x08,0x00,0x00,0x00,0x00,0x00,0x00,0x00,0x07,0x00,0x16,0x00,0x00,0x00,0x00,0x00,0x00,0x01,0x18,0x00,0x00,0x00,0x18,0x00,0x00,0x00,0x02,0x00,0x00,0x00,0x00,0x00,0x00,0x02,0x4c,0x00,0x00,0x00,0x04,0x00,0x04,0x00,0x04,0x00,0x00,0x00,0x3b,0x00,0x00,0x00,0x63,0x6e,0x6e,0x31,0x64,0x5f,0x77,0x69,0x6e,0x64,0x6f,0x77,0x32,0x34,0x74,0x6f,0x32,0x5f,0x75,0x6c,0x74,0x72,0x61,0x74,0x69,0x6e,0x79,0x5f,0x6d,0x75,0x6c,0x74,0x69,0x68,0x65,0x61,0x64,0x2f,0x64,0x77,0x63,0x6f,0x6e,0x76,0x2f,0x45,0x78,0x70,0x61,0x6e,0x64,0x44,0x69,0x6d,0x73,0x2f,0x64,0x69,0x6d,0x00,0x00,0x00,0x00,0x00,0x00,0x00,0x16,0x00,0x20,0x00,0x1c,0x00,0x1b,0x00,0x14,0x00,0x10,0x00,0x0c,0x00,0x00,0x00,0x00,0x00,0x08,0x00,0x07,0x00,0x16,0x00,0x00,0x00,0x00,0x00,0x00,0x01,0x18,0x00,0x00,0x00,0x30,0x00,0x00,0x00,0x50,0x00,0x00,0x00,0x01,0x00,0x00,0x00,0x00,0x00,0x00,0x09,0x70,0x00,0x00,0x00,0x03,0x00,0x00,0x00,0xff,0xff,0xff,0xff,0x18,0x00,0x00,0x00,0x0c,0x00,0x00,0x00,0x0c,0x00,0x0c,0x00,0x00,0x00,0x00,0x00,0x08,0x00,0x04,0x00,0x0c,0x00,0x00,0x00,0x08,0x00,0x00,0x00,0x14,0x00,0x00,0x00,0x01,0x00,0x00,0x00,0x80,0xff,0xff,0xff,0xff,0xff,0xff,0xff,0x00,0x00,0x00,0x00,0x01,0x00,0x00,0x00,0x81,0x80,0x80,0x3b,0x24,0x00,0x00,0x00,0x73,0x65,0x72,0x76,0x69,0x6e,0x67,0x5f,0x64,0x65,0x66,0x61,0x75,0x6c,0x74,0x5f,0x69,0x6e,0x70,0x75,0x74,0x73,0x5f,0x77,0x69,0x6e,0x64,0x6f,0x77,0x78,0x66,0x65,0x61,0x74,0x3a,0x30,0x00,0x00,0x00,0x00,0x03,0x00,0x00,0x00,0x01,0x00,0x00,0x00,0x18,0x00,0x00,0x00,0x0c,0x00,0x00,0x00,0x07,0x00,0x00,0x00,0x90,0x00,0x00,0x00,0x70,0x00,0x00,0x00,0x50,0x00,0x00,0x00,0x40,0x00,0x00,0x00,0x2c,0x00,0x00,0x00,0x18,0x00,0x00,0x00,0x04,0x00,0x00,0x00,0xb4,0xff,0xff,0xff,0x06,0x00,0x00,0x00,0x02,0x00,0x00,0x00,0x00,0x00,0x00,0x06,0xc4,0xff,0xff,0xff,0x09,0x00,0x00,0x00,0x04,0x00,0x00,0x00,0x00,0x00,0x00,0x09,0xd4,0xff,0xff,0xff,0x28,0x00,0x00,0x00,0x02,0x00,0x00,0x00,0x00,0x00,0x00,0x28,0xc8,0xff,0xff,0xff,0x16,0x00,0x00,0x00,0x00,0x00,0x00,0x16,0xf0,0xff,0xff,0xff,0x03,0x00,0x00,0x00,0x03,0x00,0x00,0x00,0x00,0x00,0x00,0x03,0x0c,0x00,0x10,0x00,0x0f,0x00,0x00,0x00,0x08,0x00,0x04,0x00,0x0c,0x00,0x00,0x00,0x04,0x00,0x00,0x00,0x03,0x00,0x00,0x00,0x00,0x00,0x00,0x04,0x0c,0x00,0x0c,0x00,0x0b,0x00,0x00,0x00,0x00,0x00,0x04,0x00,0x0c,0x00,0x00,0x00,0x46,0x00,0x00,0x00,0x00,0x00,0x00,0x46};

const int environment_model_len = 7296;

#endif // ENVIRONMENT_MODEL_DATA_CONV1D_TINY_H
