#ifndef ENVIRONMENT_MODEL_DATA_LSTM_H
#define ENVIRONMENT_MODEL_DATA_LSTM_H

#include <cstdint>

alignas(8) const unsigned char environment_model[] = {0x20,0x00,0x00,0x00,0x54,0x46,0x4c,0x33,0x00,0x00,0x00,0x00,0x14,0x00,0x20,0x00,0x1c,0x00,0x18,0x00,0x14,0x00,0x10,0x00,0x0c,0x00,0x00,0x00,0x08,0x00,0x04,0x00,0x14,0x00,0x00,0x00,0x1c,0x00,0x00,0x00,0x80,0x00,0x00,0x00,0xd8,0x00,0x00,0x00,0x58,0x14,0x00,0x00,0x68,0x14,0x00,0x00,0x28,0x25,0x00,0x00,0x03,0x00,0x00,0x00,0x01,0x00,0x00,0x00,0x04,0x00,0x00,0x00,0x52,0xeb,0xff,0xff,0x0c,0x00,0x00,0x00,0x1c,0x00,0x00,0x00,0x3c,0x00,0x00,0x00,0x0f,0x00,0x00,0x00,0x73,0x65,0x72,0x76,0x69,0x6e,0x67,0x5f,0x64,0x65,0x66,0x61,0x75,0x6c,0x74,0x00,0x01,0x00,0x00,0x00,0x04,0x00,0x00,0x00,0x9c,0xff,0xff,0xff,0x20,0x00,0x00,0x00,0x04,0x00,0x00,0x00,0x08,0x00,0x00,0x00,0x6f,0x75,0x74,0x70,0x75,0x74,0x5f,0x30,0x00,0x00,0x00,0x00,0x01,0x00,0x00,0x00,0x04,0x00,0x00,0x00,0x36,0xec,0xff,0xff,0x04,0x00,0x00,0x00,0x01,0x00,0x00,0x00,0x78,0x00,0x00,0x00,0x02,0x00,0x00,0x00,0x34,0x00,0x00,0x00,0x04,0x00,0x00,0x00,0xdc,0xff,0xff,0xff,0x1e,0x00,0x00,0x00,0x04,0x00,0x00,0x00,0x13,0x00,0x00,0x00,0x43,0x4f,0x4e,0x56,0x45,0x52,0x53,0x49,0x4f,0x4e,0x5f,0x4d,0x45,0x54,0x41,0x44,0x41,0x54,0x41,0x00,0x08,0x00,0x0c,0x00,0x08,0x00,0x04,0x00,0x08,0x00,0x00,0x00,0x1d,0x00,0x00,0x00,0x04,0x00,0x00,0x00,0x13,0x00,0x00,0x00,0x6d,0x69,0x6e,0x5f,0x72,0x75,0x6e,0x74,0x69,0x6d,0x65,0x5f,0x76,0x65,0x72,0x73,0x69,0x6f,0x6e,0x00,0x1f,0x00,0x00,0x00,0x7c,0x13,0x00,0x00,0x74,0x13,0x00,0x00,0x58,0x13,0x00,0x00,0x34,0x13,0x00,0x00,0x18,0x13,0x00,0x00,0xc8,0x12,0x00,0x00,0x38,0x11,0x00,0x00,0xc8,0x10,0x00,0x00,0x58,0x10,0x00,0x00,0xe8,0x0f,0x00,0x00,0x78,0x0f,0x00,0x00,0x28,0x0d,0x00,0x00,0xd8,0x0a,0x00,0x00,0x88,0x08,0x00,0x00,0x38,0x06,0x00,0x00,0x08,0x05,0x00,0x00,0xd8,0x03,0x00,0x00,0xa8,0x02,0x00,0x00,0x78,0x01,0x00,0x00,0x70,0x01,0x00,0x00,0x48,0x01,0x00,0x00,0x08,0x01,0x00,0x00,0x00,0x01,0x00,0x00,0xf8,0x00,0x00,0x00,0xf0,0x00,0x00,0x00,0xc0,0x00,0x00,0x00,0xa8,0x00,0x00,0x00,0xa0,0x00,0x00,0x00,0x98,0x00,0x00,0x00,0x78,0x00,0x00,0x00,0x04,0x00,0x00,0x00,0x22,0xed,0xff,0xff,0x04,0x00,0x00,0x00,0x64,0x00,0x00,0x00,0x0c,0x00,0x00,0x00,0x08,0x00,0x0e,0x00,0x08,0x00,0x04,0x00,0x08,0x00,0x00,0x00,0x14,0x00,0x00,0x00,0x34,0x00,0x00,0x00,0x00,0x00,0x0a,0x00,0x0c,0x00,0x08,0x00,0x00,0x00,0x07,0x00,0x0a,0x00,0x00,0x00,0x00,0x00,0x00,0x01,0x04,0x00,0x00,0x00,0x02,0x00,0x00,0x00,0xeb,0x03,0x00,0x00,0xd0,0x07,0x00,0x00,0x00,0x00,0x0a,0x00,0x10,0x00,0x0c,0x00,0x08,0x00,0x04,0x00,0x0a,0x00,0x00,0x00,0x03,0x00,0x00,0x00,0x02,0x00,0x00,0x00,0x04,0x00,0x00,0x00,0x06,0x00,0x00,0x00,0x32,0x2e,0x31,0x34,0x2e,0x30,0x00,0x00,0x92,0xed,0xff,0xff,0x04,0x00,0x00,0x00,0x10,0x00,0x00,0x00,0x31,0x2e,0x31,0x34,0x2e,0x30,0x00,0x00,0x00,0x00,0x00,0x00,0x00,0x00,0x00,0x00,0xe0,0xdc,0xff,0xff,0xe4,0xdc,0xff,0xff,0xb6,0xed,0xff,0xff,0x04,0x00,0x00,0x00,0x08,0x00,0x00,0x00,0xb4,0x00,0x00,0x00,0xb0,0x00,0x00,0x00,0xca,0xed,0xff,0xff,0x04,0x00,0x00,0x00,0x20,0x00,0x00,0x00,0xff,0x7f,0x6e,0xa8,0x14,0x32,0x14,0x28,0x1b,0x73,0xe6,0x38,0x3c,0xd2,0xe6,0xe4,0xf8,0x68,0x69,0x3d,0x11,0x58,0x67,0xe5,0x99,0x8e,0x43,0x95,0xcf,0x64,0x42,0xb0,0x28,0xdd,0xff,0xff,0x2c,0xdd,0xff,0xff,0x30,0xdd,0xff,0xff,0x02,0xee,0xff,0xff,0x04,0x00,0x00,0x00,0x30,0x00,0x00,0x00,0x00,0x40,0x00,0x40,0x00,0x40,0x00,0x40,0x00,0x40,0x00,0x40,0x00,0x40,0x00,0x40,0x00,0x40,0x00,0x40,0x00,0x40,0x00,0x40,0x00,0x40,0x00,0x40,0x00,0x40,0x00,0x40,0x00,0x40,0x00,0x40,0x00,0x40,0x00,0x40,0x00,0x40,0x00,0x40,0x00,0x40,0x00,0x40,0x3e,0xee,0xff,0xff,0x04,0x00,0x00,0x00,0x18,0x00,0x00,0x00,0xfb,0xfb,0xfb,0xfb,0xfb,0xfb,0xfb,0xfb,0xfb,0xfb,0xfb,0xfb,0xfb,0xfb,0xfb,0xfb,0xfb,0xfb,0xfb,0xfb,0xfb,0xfb,0xfb,0xfb,0x94,0xdd,0xff,0xff,0x66,0xee,0xff,0xff,0x04,0x00,0x00,0x00,0x20,0x01,0x00,0x00,0x7f,0x30,0x13,0x6f,0x44,0x73,0xef,0xfd,0xfe,0xd2,0xf2,0xfc,0xb2,0xe6,0xf5,0xc4,0xc7,0x98,0xbb,0x01,0x4f,0x48,0x4e,0xdc,0x4b,0xaa,0x3a,0x61,0x94,0xc2,0x23,0x40,0x42,0x27,0xba,0x85,0x8e,0xb3,0xf7,0xf0,0xf3,0x42,0x10,0x59,0x6e,0xeb,0xec,0x87,0x2b,0x10,0xf7,0x30,0x20,0x1c,0x97,0x3a,0x26,0xc1,0xe4,0x98,0x9d,0xe8,0x97,0x30,0xf0,0xde,0x0e,0x58,0x17,0xc4,0x13,0x74,0xce,0xcf,0x97,0x29,0xe4,0xa1,0x3b,0xcc,0x31,0xc8,0x90,0xa9,0x8f,0x42,0xb5,0x9c,0x63,0x0e,0x69,0x45,0xe7,0xe7,0xaf,0x09,0x4e,0xd6,0x58,0xc2,0x5e,0xce,0xf0,0x1a,0x56,0x0b,0x0f,0x3f,0x9d,0xc0,0x5c,0xa3,0xac,0x37,0x3c,0x12,0xbf,0xb2,0xd1,0x5e,0x38,0x3b,0x0b,0x1f,0xfc,0x2b,0x9e,0x6c,0xfe,0x26,0xf3,0x9d,0x3b,0xdf,0xf5,0xdb,0x0c,0xa2,0xf6,0xec,0x97,0xa5,0x44,0x9c,0xdb,0xb7,0x3f,0xea,0x12,0xc6,0x01,0xc8,0x74,0x5f,0x1d,0x5b,0x36,0xd7,0x94,0x01,0xea,0x99,0xdb,0xb7,0xc4,0x1a,0x3f,0x0b,0xe3,0x15,0x4a,0x08,0xa7,0xb1,0xe0,0xb8,0x00,0xe6,0x63,0xa1,0xd9,0x3e,0x2b,0xb4,0x42,0x36,0xb6,0xa8,0xa5,0xee,0xd8,0xcb,0x23,0xc1,0x8d,0x18,0xef,0x71,0x23,0x8a,0xd2,0xd6,0xa9,0x30,0xa8,0x90,0x01,0xdf,0x8c,0x1a,0xf3,0x59,0x0d,0x66,0x6c,0x42,0xee,0xc2,0xa9,0xc1,0x2e,0xfb,0x93,0xcc,0x3a,0x51,0x4d,0x96,0x4e,0x31,0x21,0x44,0x02,0xfb,0x7e,0xb7,0x43,0xd3,0xf1,0x3f,0xe4,0x0a,0xa3,0x18,0x1a,0x9c,0x6d,0x05,0xff,0x99,0xbd,0x02,0x23,0x1f,0xcd,0x44,0x6e,0xc3,0xb1,0xcf,0x4d,0x1c,0x9b,0x88,0x0c,0xd2,0xbe,0x5f,0xc0,0xdc,0x11,0x8e,0x57,0x47,0x90,0x48,0xa4,0xe8,0x0c,0x38,0x2b,0xd9,0xf3,0x19,0xcd,0x02,0xd4,0x13,0x92,0xef,0xff,0xff,0x04,0x00,0x00,0x00,0x20,0x01,0x00,0x00,0xcf,0x2c,0xd9,0xb5,0x2f,0x0a,0xe2,0x07,0x77,0xb0,0xe0,0xbb,0xef,0xcb,0x69,0x34,0x36,0x76,0xc6,0xdc,0x27,0x8b,0xa4,0x2a,0xef,0xd3,0x85,0x40,0x85,0x8c,0x42,0xf6,0x3c,0x96,0x74,0x01,0xfe,0x37,0xaf,0xd9,0x56,0x5b,0x43,0x86,0x4b,0x36,0xc2,0x09,0x03,0x9a,0xab,0x9c,0x87,0x08,0x8c,0xfb,0x8b,0x6a,0x4d,0x8d,0x7f,0xa0,0x28,0xca,0x2f,0x0e,0x3b,0xc2,0xeb,0xd8,0xc8,0x54,0xff,0xd2,0x63,0xc3,0x13,0x2a,0x53,0xf8,0xe4,0xe7,0xd3,0xfc,0xee,0x2b,0xc8,0x0f,0x1f,0x9c,0x6c,0x22,0xaa,0x14,0xae,0x0a,0x07,0xe6,0x54,0xfd,0xd9,0xc6,0xcb,0x42,0x4f,0x77,0x43,0x8e,0x16,0x24,0xc1,0x35,0x3a,0x57,0xd3,0xa2,0xf7,0xee,0x26,0xd2,0x72,0x96,0x67,0xaa,0xd8,0x13,0xf2,0xa6,0xeb,0x13,0xed,0x7a,0xfa,0x78,0x1f,0x7d,0xa0,0x7a,0x3b,0x78,0x34,0x5f,0xad,0x0d,0x33,0xe1,0x13,0x51,0x64,0xd2,0xfb,0x2b,0x28,0x25,0x6d,0xb3,0x2b,0x0b,0x4f,0x6d,0x54,0x57,0x7d,0xbb,0xdf,0xbd,0x92,0xf8,0x99,0x86,0x59,0x04,0x69,0x8e,0xf5,0x4c,0x34,0xd8,0x33,0xd2,0x5b,0xdf,0xd8,0xd6,0xbe,0x92,0x5a,0x8d,0xd3,0x05,0x96,0xb0,0xa7,0xe3,0xc3,0x76,0x27,0x93,0x35,0x18,0xbc,0xe4,0x11,0x8c,0xfd,0xd9,0xea,0xb5,0x2b,0xe2,0x01,0x52,0x1c,0x1a,0xf1,0xcf,0xc5,0x16,0x00,0x31,0x9e,0x8c,0x13,0xd2,0xc3,0x2a,0xa9,0x3e,0x5b,0xb7,0xe9,0x7c,0x4e,0x2b,0x74,0x54,0x79,0xe2,0x70,0xfe,0x9e,0x36,0xcf,0x29,0x1c,0x02,0x09,0xcc,0xad,0xe8,0x4f,0x60,0x6c,0xbb,0x3b,0x43,0xae,0xb8,0x74,0x69,0x40,0x52,0xa2,0x03,0x06,0x04,0xd7,0xd0,0x71,0x17,0xf6,0x13,0xdd,0xc8,0x13,0x2a,0x9f,0x7a,0x97,0xb8,0x8a,0x65,0x2f,0x1e,0x89,0xd1,0x4b,0xd0,0xbe,0xf0,0xff,0xff,0x04,0x00,0x00,0x00,0x20,0x01,0x00,0x00,0xca,0xa6,0xdf,0x67,0x01,0x8a,0x06,0x12,0xc9,0x0e,0xda,0x74,0x42,0xdc,0x06,0x06,0xc6,0xb3,0x97,0x5b,0x0d,0xc5,0xe9,0x77,0xec,0xda,0x9b,0xfa,0x7d,0xfc,0xe1,0x9a,0xef,0xa4,0x61,0x69,0x78,0x36,0xf2,0x79,0x41,0xaf,0x21,0x5a,0xe1,0xbb,0xc3,0xa3,0x16,0x28,0x4a,0x68,0xfd,0x2a,0x3f,0x53,0x4c,0x93,0x5b,0xce,0x34,0x6f,0x01,0x75,0xbb,0x71,0x2e,0x39,0x20,0xa3,0x6f,0x3c,0x92,0xe4,0xdb,0x7e,0xcc,0x04,0x70,0x47,0x3a,0x3e,0x2f,0xaa,0xcc,0x97,0xe4,0xec,0xf4,0x9e,0x89,0x50,0x70,0xeb,0x1c,0xaf,0xe8,0x67,0x52,0x0b,0x3b,0xb3,0xdb,0x13,0x35,0x43,0x57,0x0c,0xb1,0x56,0xa7,0x8d,0x0d,0xb5,0x60,0x66,0xb3,0x32,0x67,0x57,0xa3,0xb8,0x1d,0x6d,0xd4,0xc0,0xe8,0x64,0x19,0x1c,0x70,0x94,0x23,0xc3,0x6c,0x7c,0x13,0x50,0xab,0xe6,0x65,0x96,0xfb,0x65,0xcf,0xd0,0x5c,0xe5,0x38,0x57,0x05,0x55,0xdc,0xf3,0x24,0xc4,0x21,0xd3,0x35,0xeb,0x6a,0xbc,0xea,0x96,0x64,0x45,0x72,0x63,0x9d,0x55,0x2d,0x53,0xfa,0x49,0xa9,0xb8,0xd1,0x53,0x2b,0x03,0xdb,0x99,0xdb,0x32,0xf6,0x96,0x2e,0xb5,0x75,0x89,0x7d,0xd8,0x42,0xc7,0x0f,0x5e,0xd4,0x26,0x89,0x93,0x42,0x37,0x38,0xd4,0x41,0x0b,0x6f,0x26,0xea,0x29,0x70,0x45,0xea,0x9b,0x2e,0xbf,0xbf,0x6a,0x84,0xb8,0x2d,0x3c,0x8c,0x4c,0xaa,0x02,0xec,0x97,0x1b,0x2c,0xfa,0x62,0xd2,0x8a,0xe7,0x31,0x6d,0x3e,0xae,0xce,0x6a,0xdb,0xf8,0xcf,0xf2,0x08,0x75,0xfa,0x36,0x77,0x6c,0xce,0xf6,0x36,0x39,0x56,0x3c,0xdf,0xdf,0x1d,0xc9,0x68,0x0e,0xa5,0xbb,0xf9,0x38,0x18,0x8e,0x17,0xad,0x81,0x1e,0x39,0xa1,0xad,0x93,0x95,0xfb,0x2f,0x64,0xf1,0x14,0x6e,0x50,0xaa,0x8f,0x37,0xea,0xf1,0xff,0xff,0x04,0x00,0x00,0x00,0x20,0x01,0x00,0x00,0x2b,0x11,0x3e,0x09,0xb7,0x91,0x35,0xba,0x3f,0x52,0x57,0x45,0x2a,0x39,0x74,0xe6,0x1b,0x84,0xf4,0x11,0x08,0xac,0x79,0x8d,0xeb,0x94,0x29,0xbd,0xaa,0x13,0x65,0x9f,0x09,0x6b,0xa0,0x52,0x1f,0x37,0xf2,0xf0,0x37,0x46,0xc5,0x62,0x56,0x0f,0xab,0xbf,0xa4,0x15,0x63,0xbe,0x52,0xf0,0xff,0x20,0x42,0x02,0x26,0xea,0x90,0xc9,0x28,0xa9,0x56,0x42,0xf6,0x7f,0xfc,0x2a,0x8d,0x03,0xb9,0x3c,0x24,0x9a,0xa6,0xca,0xdf,0xc3,0x8a,0xa6,0xbb,0x34,0x8c,0x37,0x04,0xfc,0x6a,0xd1,0x1c,0x26,0xe8,0xee,0xea,0x53,0xfe,0xe2,0xa0,0x4e,0x15,0xfc,0xb3,0x34,0xee,0x70,0xc8,0xb7,0x4e,0x60,0xcd,0x6e,0xcc,0x23,0x54,0x41,0x04,0xc5,0xb0,0x77,0x9e,0xb5,0x05,0xe0,0xf3,0xe2,0xdf,0x1f,0xfc,0xac,0x31,0x40,0x89,0xcc,0x97,0x9f,0x10,0x9a,0xc2,0x05,0x2a,0x02,0xaf,0x7c,0x1c,0xb1,0xb5,0x0a,0x8d,0x73,0x27,0xce,0x7b,0x46,0x34,0x6b,0x16,0x12,0x50,0x01,0xf8,0xdf,0x4d,0x13,0x21,0x3d,0x32,0x89,0x07,0xf6,0x79,0x95,0x79,0xa2,0x42,0x04,0x70,0xc5,0x43,0xa4,0x59,0x5f,0x06,0x22,0x86,0x2f,0xa5,0xb2,0x10,0x02,0x2d,0xb5,0xb4,0xf0,0x82,0x0b,0x89,0xa9,0x59,0x58,0x2a,0x91,0xf6,0x14,0x6f,0xdc,0x2f,0x7d,0x31,0xfd,0x20,0x28,0x07,0x21,0xf0,0xe7,0x5d,0xfd,0x93,0x5d,0xfc,0xfb,0xfe,0x94,0x09,0xde,0x07,0x30,0x9d,0xe5,0x9c,0xc3,0x2c,0xf3,0x94,0x9c,0xf3,0x49,0x3b,0xbf,0xc7,0x5e,0xdf,0xa1,0x82,0xeb,0x3c,0x4d,0x32,0xb8,0xd2,0x6f,0x31,0xc3,0x0a,0x5a,0x2d,0xd8,0xdd,0xfa,0xe6,0x8a,0x18,0x4d,0xac,0x96,0x26,0x3a,0xfe,0x42,0xd3,0x91,0x77,0xcf,0x52,0x72,0x04,0xf8,0xaf,0x3d,0xa4,0xff,0x22,0xb0,0xf0,0x74,0xd8,0xde,0x16,0xf3,0xff,0xff,0x04,0x00,0x00,0x00,0x40,0x02,0x00,0x00,0x11,0x00,0xe4,0xd2,0x1a,0x01,0x07,0x0b,0xca,0x14,0xe9,0x34,0x2f,0x7f,0x1b,0xf4,0x20,0x05,0x06,0xf7,0xe7,0xce,0xd5,0x1e,0xfd,0x28,0xff,0x20,0xdb,0xed,0x3f,0xe8,0xe9,0x0c,0x00,0xdd,0x17,0x3a,0x14,0xbf,0x3c,0xd6,0x05,0xf5,0xb9,0xdf,0xec,0x21,0x12,0xf7,0x2a,0xf4,0x22,0xc8,0x0a,0xea,0xf0,0xff,0x1e,0xf1,0xf5,0x16,0xde,0x49,0x1d,0x18,0x26,0x28,0xcf,0x1e,0x01,0x17,0xda,0xf5,0x34,0xcd,0xf2,0xe0,0x16,0x16,0xd4,0xd0,0x12,0xee,0xfc,0xeb,0xcf,0xf7,0xd7,0x1c,0x34,0x1a,0xfe,0xdb,0x17,0x30,0x1f,0xcb,0xf1,0xcd,0x03,0xf8,0xdb,0xb1,0xf3,0xd3,0x39,0x2e,0x57,0x3e,0xac,0x25,0x18,0x0d,0xc3,0x4d,0x2b,0xf6,0x13,0x16,0x42,0x46,0xf5,0x2f,0xf5,0xf1,0x0e,0x41,0xfb,0xfe,0x60,0x02,0xf0,0x40,0x08,0xf2,0x0d,0xa8,0xc8,0x21,0x03,0xfa,0xba,0xfc,0xea,0x1f,0xce,0xe4,0xc1,0x2c,0xa3,0x81,0x06,0xe3,0x5f,0xec,0xe0,0xdd,0x2f,0x12,0xe4,0x17,0x03,0x2c,0xd4,0x21,0xc0,0x3f,0xe1,0x09,0x41,0x23,0xf2,0x00,0xd9,0xdd,0x0e,0x37,0x31,0x3a,0xe3,0xd9,0x00,0xfc,0xe6,0xef,0xab,0x28,0x1f,0xf1,0xe4,0x1e,0xe7,0xf8,0xec,0x14,0xca,0x18,0x00,0x01,0xf2,0xfd,0xde,0xf2,0x51,0x23,0x3e,0x00,0xf0,0x36,0xef,0x58,0xfb,0x14,0x09,0xd7,0xf2,0xee,0x2e,0x42,0x22,0x10,0x05,0x23,0x56,0xe7,0x45,0x23,0x1f,0x1c,0x1c,0x42,0x25,0x31,0xeb,0x10,0x1f,0x12,0x00,0x21,0xfe,0x27,0x0e,0xe1,0xe4,0x18,0x1b,0x29,0xe8,0x08,0xb8,0xff,0xf8,0x45,0x6b,0x19,0xb1,0x26,0xf7,0xf9,0xde,0x4e,0x1b,0xd0,0x1c,0xfb,0x09,0x27,0xe0,0xeb,0x0a,0x2b,0xd8,0xbd,0x3c,0x1f,0xb8,0xf9,0xff,0xf8,0xd9,0xd6,0x41,0xfb,0xe2,0xf8,0x1c,0xc2,0x0a,0x64,0xda,0xf4,0x0b,0x01,0x44,0xe5,0xe4,0x25,0xf5,0x78,0xb8,0xfc,0xc7,0x02,0xe5,0x21,0xe3,0x44,0xd7,0xea,0x14,0x18,0xed,0xe5,0xac,0xda,0xee,0xdf,0xd1,0xee,0xf7,0x1d,0xff,0x19,0xf7,0x01,0x01,0x03,0xf1,0x0b,0xfd,0x1b,0x2c,0x3e,0xe4,0xee,0xc5,0xdf,0xe4,0x13,0xdc,0xe7,0xfb,0xf0,0x05,0x30,0x12,0x29,0x1f,0x1f,0xe6,0x34,0x0a,0xbc,0xe8,0xd3,0xe5,0xcf,0x2e,0x0b,0xb0,0x17,0x64,0xde,0x05,0x14,0xf2,0xeb,0xdf,0x1a,0x33,0xea,0x1c,0x0e,0x1b,0x2a,0xbe,0x0c,0x2c,0xcf,0x5b,0xe7,0xe8,0x15,0xfb,0xdc,0x06,0xd9,0x08,0xea,0x14,0xe3,0x11,0x43,0xc1,0xc3,0xc0,0xfe,0xfb,0x48,0xcd,0xce,0x07,0x2f,0x2a,0x10,0xf7,0x51,0xc4,0x22,0x14,0x2c,0x2c,0xaa,0xd5,0xbf,0x2f,0x1f,0xa9,0xd4,0x28,0x4c,0x05,0x1c,0x1b,0xf6,0xca,0x44,0xef,0xc2,0xd7,0x09,0xe8,0xed,0xf2,0x06,0xf1,0x20,0x18,0xf3,0x3d,0xe7,0xbf,0x37,0xfc,0xdf,0x58,0x54,0x15,0x07,0x3a,0x2a,0xdf,0x0e,0x0f,0xd7,0x0c,0xcd,0x18,0xdc,0xed,0xdf,0xce,0x39,0x14,0x00,0xba,0x09,0x2e,0x34,0xd9,0xdb,0xdb,0xc5,0xd0,0xde,0x1d,0x0c,0xdc,0x18,0x26,0xe8,0x0c,0x01,0x16,0xf1,0x12,0xdb,0x02,0x06,0x1d,0xce,0x01,0xcb,0x14,0x27,0xf7,0xc8,0x17,0xf2,0xd8,0x08,0x07,0x1f,0xdc,0x13,0xc3,0x01,0x41,0x0a,0x29,0x07,0xfa,0x24,0x2d,0xf2,0x0c,0xf3,0x33,0x08,0x0a,0x12,0x08,0xf7,0x1c,0xff,0x0c,0xcb,0x0d,0xdb,0xe1,0x22,0xdd,0xa8,0xf0,0xf5,0xe7,0xcd,0x09,0xdd,0x02,0xe6,0x02,0xdd,0xf5,0xf3,0xfa,0xfd,0x42,0x20,0xe2,0xe8,0x16,0x20,0x12,0xfc,0x3d,0xc8,0xb5,0xbc,0xf9,0x24,0xfc,0x39,0xd7,0x0e,0x09,0xe3,0xfc,0x35,0xc1,0xe9,0xea,0x3a,0x1f,0xd6,0x62,0xf5,0xff,0xff,0x04,0x00,0x00,0x00,0x40,0x02,0x00,0x00,0x68,0x22,0xdb,0x51,0xb6,0xf9,0x30,0xc1,0xf2,0x55,0x0b,0xee,0x2c,0x1e,0x13,0x2e,0xf5,0x08,0xfa,0xe9,0xfd,0xf9,0x00,0xd3,0x18,0x20,0xdc,0xb5,0xc1,0x19,0xa5,0x30,0xde,0xe5,0xf3,0xb9,0xfa,0x2f,0x27,0xae,0x2f,0x34,0xee,0xcf,0xc4,0xda,0x33,0x3e,0x2e,0x3a,0xfd,0x0a,0xe4,0xf9,0x09,0xff,0xb4,0xfa,0xc7,0x1e,0x28,0xdc,0x15,0x4f,0x2e,0xb5,0x00,0xac,0x36,0x15,0x1f,0x41,0x1b,0xb3,0x21,0x36,0x05,0xd2,0x2d,0x02,0xfc,0x19,0x13,0xbd,0x81,0x20,0xdc,0x29,0x30,0xcb,0x2e,0xd1,0x19,0x19,0xd2,0x16,0x06,0x16,0xf6,0x37,0xfb,0xdc,0x08,0xff,0x0a,0x05,0x0c,0xe5,0x00,0x2e,0x2d,0xd6,0x04,0x48,0xed,0x11,0x2a,0x37,0x3d,0x0f,0xac,0xf1,0x26,0xe5,0xa7,0xfa,0x35,0xe8,0xca,0x00,0x0a,0xdb,0xfe,0x09,0x41,0xd2,0xec,0xf9,0xc5,0xc7,0x2e,0x11,0xfc,0xf4,0x39,0xe9,0x28,0x04,0xfb,0x4a,0x07,0xf9,0x38,0x41,0x3d,0x51,0x11,0x71,0x2d,0xe1,0x4f,0x07,0x37,0xe7,0x04,0x4f,0xf9,0xd2,0x22,0xea,0x08,0x6a,0xf8,0x30,0xe0,0x27,0x2b,0xd8,0xf5,0xe5,0xe7,0x2c,0x0c,0xf8,0xda,0xe8,0x05,0x2b,0xf9,0x08,0x30,0x24,0x10,0x0d,0x0f,0x12,0xe8,0xe1,0xb6,0x33,0x1f,0x4b,0x30,0xd8,0x30,0x01,0xf3,0x2c,0x00,0xf0,0xcd,0x0e,0x20,0xff,0x5a,0x38,0x13,0xf9,0x0e,0x32,0xcb,0x5e,0xec,0xd8,0x1a,0x2b,0xf5,0x03,0x58,0xf4,0x96,0x13,0xd6,0x20,0x0b,0xdc,0xff,0x28,0xc5,0xac,0xf0,0xe9,0xfa,0x07,0xe6,0x03,0xa6,0x37,0xee,0x03,0xf8,0x2f,0xe1,0xc7,0x3c,0xf8,0x21,0xa2,0xe8,0xf6,0x40,0xff,0x00,0xc6,0xd8,0x52,0x4e,0xd4,0xc7,0x35,0xe4,0xd9,0x35,0x0c,0xed,0xd6,0x20,0xd9,0x33,0x24,0x1a,0x1c,0xbd,0x06,0xf1,0x03,0x09,0xfe,0x59,0x1a,0x11,0x08,0x1a,0x4d,0x00,0x0c,0x04,0x03,0xaf,0xe0,0xb2,0x3e,0x08,0x02,0xff,0xf9,0x19,0x35,0x48,0xe2,0x0c,0xef,0xe1,0xb7,0x12,0x3a,0x02,0xf0,0x02,0xf8,0x1d,0x02,0xf4,0xcc,0x54,0x15,0xe6,0xfa,0xda,0x13,0xfa,0x18,0xd6,0x2c,0x76,0xba,0xde,0xff,0x00,0xf0,0xa5,0xe0,0x06,0xfc,0xd7,0xfd,0x07,0x19,0xf5,0xeb,0xeb,0x3d,0x2d,0xfb,0xd7,0xec,0x69,0xf4,0x12,0xe0,0xf2,0xc0,0x25,0x06,0xe3,0xe2,0x2e,0xd7,0x04,0xe8,0x36,0x45,0xe3,0x20,0x1d,0xfb,0xf3,0xed,0xe4,0x1e,0x10,0xe8,0x14,0xfb,0xc2,0x1b,0x37,0x5d,0xcd,0xc5,0xfe,0xe1,0xe0,0xbb,0x24,0x10,0x06,0xd8,0xe4,0xd4,0x24,0x0b,0xc8,0xd8,0xd8,0xd9,0xe3,0x9e,0xff,0x2b,0x2d,0x01,0xdc,0xdf,0xee,0xa8,0x28,0xe7,0xbd,0x32,0x10,0x2d,0xfe,0xeb,0xdb,0xb9,0x12,0x03,0xc4,0x4c,0xcb,0x03,0x44,0xe9,0x3b,0x20,0xd5,0xe8,0x2c,0x05,0xd1,0x2a,0x0d,0x31,0x2d,0xca,0x2a,0xde,0x5d,0x1b,0x0f,0x1e,0xd1,0x2a,0xde,0x61,0xf8,0x38,0xef,0x0d,0x0f,0x3b,0x37,0xf5,0x56,0xbf,0xd1,0x0d,0x1b,0xf4,0x01,0xce,0x06,0x17,0xef,0x0c,0x08,0x0d,0xd4,0x25,0x50,0xa6,0x21,0xe0,0xb8,0xf7,0x01,0xe1,0xec,0x14,0xf4,0xee,0xc4,0xbe,0xef,0xef,0x22,0x6e,0x16,0x14,0xf5,0xe9,0x27,0xfa,0x53,0x2c,0x28,0x27,0x34,0xd7,0xe8,0xec,0xdb,0xfc,0xce,0x4b,0x27,0xe8,0x12,0x2e,0xeb,0x13,0xf4,0xf0,0x3e,0x05,0x2b,0xe7,0xd8,0xc7,0x35,0xf9,0xf9,0x64,0x27,0x23,0xe2,0x34,0x04,0x23,0xe7,0xe9,0x2a,0x01,0x3d,0x4b,0xcc,0xe6,0x22,0x12,0xff,0x18,0x00,0xd1,0x0a,0xea,0xe8,0xd4,0xe7,0x29,0xbf,0x24,0x40,0x07,0x3c,0x1c,0xf9,0x28,0xab,0x22,0x21,0xe7,0xeb,0xbb,0x2a,0xe3,0xae,0xf7,0xff,0xff,0x04,0x00,0x00,0x00,0x40,0x02,0x00,0x00,0x0b,0xe2,0x18,0xf2,0x3e,0x38,0xd2,0xf0,0xdd,0x0d,0x0e,0xd4,0xc7,0xbf,0x2a,0x14,0xd1,0x0d,0x99,0xd2,0xd4,0x20,0xfc,0x31,0xa5,0xf3,0xbb,0x61,0x11,0x38,0xcf,0xea,0xd9,0xff,0x0e,0x1c,0xe4,0x00,0x09,0xb2,0xe3,0xef,0x17,0x3e,0x3c,0xfc,0xda,0xda,0x0e,0x9e,0xdf,0x05,0xe1,0xea,0x02,0xf8,0xc8,0x20,0x00,0x3b,0x32,0x15,0x3d,0xa2,0xef,0x1a,0xd6,0x22,0x16,0xcf,0x03,0x39,0x1b,0xfa,0x3a,0x48,0xfa,0xd3,0x1f,0x32,0xd6,0x25,0xbd,0xf8,0xd9,0x04,0x15,0xd8,0xdb,0x0b,0xd2,0x76,0x0b,0x3f,0xff,0x2e,0xd3,0xf5,0x1d,0xff,0xe8,0x88,0x2f,0xf1,0x23,0x2c,0xfc,0x04,0x29,0xf2,0x40,0xf0,0x15,0xcd,0x05,0x0a,0xb0,0x2e,0xee,0x01,0x04,0xfa,0x07,0xe7,0x0a,0x39,0x36,0xbe,0xef,0xca,0x2b,0xf4,0x06,0x69,0x2b,0x11,0xfc,0xfa,0x27,0x10,0x37,0x28,0xe6,0xde,0xc4,0xfe,0x2f,0xb3,0xfe,0x39,0x0a,0xe9,0xcf,0xfd,0x06,0xed,0x45,0xf9,0x35,0xe5,0x22,0xa8,0x55,0x56,0xe8,0x21,0x1c,0x1c,0x54,0xf6,0xcb,0xc9,0x36,0xd9,0xe1,0xa8,0x35,0x20,0x3d,0xe8,0xe0,0xfe,0x3c,0xc2,0xb1,0x0a,0x2c,0x1f,0x30,0xd5,0xf9,0xf7,0xfe,0x13,0x39,0xf9,0xe8,0x29,0xe2,0xda,0x31,0xb8,0x26,0xf7,0xe6,0x37,0x15,0xe0,0x46,0xfd,0xb7,0x29,0x22,0x08,0x32,0x1f,0xc5,0xf2,0xea,0x38,0xf7,0x2d,0x14,0x9c,0x33,0xf2,0xdd,0xff,0xf4,0x0f,0xf6,0xe7,0xf7,0xd2,0xee,0xb2,0xd0,0xb3,0x2a,0x20,0xc1,0x5c,0xe3,0xed,0xf5,0xb1,0xea,0x1e,0xf9,0xe7,0x2a,0xf9,0x99,0x10,0xf4,0x26,0x4e,0xfc,0x1b,0xf1,0xf1,0x04,0x20,0x12,0x0f,0x08,0x1b,0x25,0x44,0x04,0xcb,0xf1,0x06,0xed,0xfe,0xe7,0xf8,0x13,0x1a,0xa8,0x1a,0xcb,0x18,0x1b,0x0f,0xfe,0x1a,0xbb,0x15,0xf3,0xd8,0xca,0xeb,0x44,0x25,0xd8,0x07,0xfb,0x0b,0x10,0x16,0xfd,0xce,0xe1,0x35,0xf8,0x9a,0xca,0x18,0x3d,0xdb,0xd4,0x9d,0x19,0xd1,0xfa,0x2f,0x0d,0xfb,0x0b,0xda,0x57,0xd3,0xff,0xdb,0x1d,0x3b,0x00,0x06,0xed,0xf4,0xfe,0x27,0x36,0xa6,0xe0,0xc0,0xc9,0x1f,0xf1,0x15,0x06,0xd0,0xf7,0xc0,0xed,0xd7,0x39,0xd7,0xe8,0xa4,0x08,0x21,0xef,0x21,0x0d,0x1a,0x0e,0xec,0x08,0xfc,0xb9,0xca,0xfc,0xcc,0x00,0x00,0xcf,0xce,0x15,0xf1,0x58,0xed,0x1c,0x57,0x2d,0xed,0xc7,0xf6,0xf4,0x09,0xf1,0xe5,0xf0,0xd3,0xf8,0xf5,0x18,0x05,0x0d,0x2d,0xf0,0x11,0xd0,0xe4,0x1e,0xe4,0x2b,0x3d,0xee,0x3c,0x0b,0xb2,0x19,0x34,0x16,0x26,0xf8,0xfe,0x35,0x25,0x28,0x24,0xe6,0xd9,0xd6,0x42,0x24,0x06,0x54,0x20,0xd5,0x1d,0xb7,0xef,0xef,0x24,0xad,0x32,0x43,0x41,0x60,0x42,0x17,0xe6,0x22,0xce,0xed,0x0d,0xb4,0xcb,0x0f,0xd2,0x2c,0x25,0xd4,0x28,0x09,0xfc,0x1c,0x3d,0x0e,0xf4,0xe6,0xf6,0x1c,0x1f,0x40,0x13,0x04,0x16,0xeb,0x32,0xa9,0xee,0xbd,0xf7,0xfe,0x1d,0x18,0x30,0x16,0x0c,0x1b,0xf3,0xcc,0x29,0xfc,0xb6,0xf2,0x17,0xe6,0xd1,0xd4,0xf3,0xc0,0x24,0xfe,0xfa,0x08,0x4f,0xe5,0xfd,0xd4,0x43,0x3e,0x06,0x1e,0xee,0xf2,0xfc,0xc2,0xf7,0xec,0x13,0xd4,0xe8,0xf9,0x4d,0xa1,0xe4,0xd1,0xb1,0x9b,0xf9,0xb0,0xf2,0x28,0x02,0xe4,0x1f,0x35,0x16,0xd2,0x26,0xcf,0x0a,0x1f,0x25,0xf7,0xb1,0xf1,0xcd,0xe4,0x07,0x1a,0x3c,0x04,0xde,0xcd,0x04,0xf8,0x18,0xf0,0xb0,0xec,0xa8,0xe7,0x45,0x05,0x16,0x43,0x01,0xfc,0x81,0x05,0x21,0xf6,0x58,0x24,0x2b,0x0f,0x45,0xe8,0x37,0xdf,0xe5,0x1b,0x21,0xe5,0xeb,0x18,0x07,0x01,0xf9,0x0d,0xfa,0xf9,0xff,0xff,0x04,0x00,0x00,0x00,0x40,0x02,0x00,0x00,0xf9,0xe2,0xda,0xf1,0x32,0xfe,0xc8,0x11,0x21,0xc6,0xe1,0x3e,0x29,0x0a,0xfc,0x20,0x07,0x37,0xf4,0x01,0xed,0x29,0xc5,0xef,0xf9,0xc3,0x0b,0x01,0xfe,0xcb,0x01,0xf0,0x35,0x08,0xef,0x11,0xe4,0x1c,0x0e,0x17,0x28,0xef,0x35,0xc8,0x2e,0x06,0x29,0xee,0xf7,0x32,0x0f,0xf0,0x0c,0xfd,0xec,0xf4,0xe8,0xe9,0x10,0xd7,0x32,0xf2,0xef,0x21,0xda,0xce,0x2d,0x24,0x34,0xe6,0x1c,0xf6,0xf5,0xef,0x1d,0xec,0xef,0xf9,0xe5,0x31,0x29,0x2d,0x12,0xdf,0xff,0x16,0x18,0xfa,0x2b,0xfb,0xf4,0x09,0xe6,0xbb,0xcf,0xe1,0xfe,0x3d,0xf3,0x0c,0xb0,0xf1,0x06,0x33,0x0e,0xf4,0xf4,0x03,0xfe,0xfd,0xed,0xf8,0x1c,0x47,0x3e,0x17,0x62,0xef,0xd2,0x15,0xe5,0x00,0x0e,0xe9,0x36,0x02,0x2f,0xfc,0xf0,0xf8,0xed,0xe2,0x4d,0xb1,0x0b,0xd2,0x35,0xe6,0x09,0x1e,0x17,0x03,0xfd,0xff,0xf1,0xff,0xec,0xf0,0xe4,0xe8,0x0c,0xf6,0xea,0x0c,0x23,0xd2,0xf3,0x1b,0xd1,0xe3,0xdb,0xf9,0x09,0xed,0xe9,0x7f,0xca,0x13,0x10,0x2a,0xec,0xff,0xcd,0xfa,0xfa,0xe9,0xec,0x35,0xc4,0xef,0x22,0x09,0xb4,0xe2,0x2f,0xf6,0xf3,0x0b,0x1c,0x28,0x03,0xd4,0xa9,0xff,0xd9,0x2b,0xe3,0xf5,0x24,0x11,0xcf,0xd5,0xf4,0x07,0xf0,0x1a,0xed,0x1a,0xe6,0x35,0xff,0xff,0xe8,0x1f,0x2c,0x26,0xff,0xee,0x28,0x0c,0x15,0x1b,0x2f,0xf3,0xe0,0xf4,0xfe,0x3c,0xfd,0x13,0xe3,0xff,0xe2,0xdd,0xe3,0x3d,0x09,0xee,0xf4,0x20,0xf8,0x1c,0xed,0x97,0xe1,0xd6,0x4d,0x10,0x68,0xba,0xfb,0x3e,0xf5,0x01,0xf7,0xea,0xdb,0xe4,0xe7,0x08,0x0b,0x0c,0x27,0xf6,0x04,0xca,0x31,0xfe,0xd9,0xed,0x14,0xe6,0x3f,0xf0,0xc0,0xe8,0xf4,0x0d,0xfe,0x17,0xe9,0x31,0x0b,0xe6,0x10,0xdd,0xbd,0xf7,0xcd,0x01,0xf5,0x24,0xca,0x09,0xdc,0xf9,0x3b,0x26,0x02,0x1c,0xf8,0x2e,0xee,0xeb,0xf3,0x24,0x28,0x12,0xec,0xe2,0xd8,0x2a,0xf3,0x0d,0x10,0x08,0x1c,0x0d,0x27,0x02,0x24,0x2f,0x33,0xfa,0x09,0x11,0xd5,0x04,0x05,0x28,0x07,0xda,0x1e,0x18,0xee,0x33,0xfd,0xf4,0x09,0xf1,0x04,0x0a,0x1e,0xcc,0xda,0x14,0x0e,0xd2,0xe1,0x2b,0xd6,0xfd,0x02,0x0b,0xeb,0xeb,0x04,0x16,0x64,0xe4,0xdb,0xfe,0xf3,0xdf,0xe9,0xdd,0xe2,0xe4,0x26,0x3e,0x0e,0x0b,0xf6,0xfc,0xfa,0xdc,0x28,0x11,0x47,0x23,0x11,0x2a,0x3b,0xea,0xee,0xfe,0xc9,0x3b,0x1c,0xf0,0xfe,0x02,0x0b,0xfc,0xf2,0x03,0xf8,0xc9,0x05,0xf6,0xeb,0x16,0x0c,0xca,0xe5,0xe6,0x0e,0x0b,0x11,0xe7,0x21,0xd6,0x06,0xee,0x12,0xe5,0x08,0x05,0xec,0x0a,0xdf,0xd0,0xed,0xba,0x28,0x0d,0x01,0x05,0xfc,0xe9,0xe9,0xfb,0x04,0x23,0xeb,0x26,0xde,0x19,0xd9,0xe9,0xfc,0xd5,0x01,0x0f,0x0e,0x09,0x0f,0xf9,0x15,0xf2,0x33,0xda,0x21,0xf2,0x1b,0x3e,0xee,0x02,0x26,0x17,0x35,0xda,0x09,0x14,0xf6,0xe1,0x0c,0x18,0x3d,0x1d,0x1d,0xf1,0xea,0x2c,0xf8,0xdb,0x09,0x43,0xcc,0x1f,0xfb,0x54,0x42,0xe7,0x0e,0xdd,0x09,0xf6,0xee,0x23,0x10,0x06,0xe5,0x0f,0xf7,0xfe,0xcf,0x23,0xf4,0xef,0x05,0xc7,0x05,0xc2,0x0e,0xfa,0x1e,0x25,0xd4,0xd8,0x09,0x09,0x1b,0xd9,0x2a,0xe0,0x05,0xc4,0x17,0xff,0xec,0x03,0xf6,0x34,0x17,0x18,0xf4,0xd5,0xf7,0x08,0x0e,0xd4,0x0c,0xe5,0xf9,0x3b,0x03,0x2f,0x0e,0x31,0x1c,0x07,0x09,0xc0,0xd3,0x0a,0x15,0xec,0x04,0xee,0x00,0xf5,0x10,0x12,0xfe,0xdc,0xff,0xc9,0xb1,0x24,0xe4,0xf0,0xfa,0xf9,0xef,0xf9,0x07,0x54,0x3f,0x05,0xec,0x11,0xe1,0x17,0x06,0xf3,0x46,0xfc,0xff,0xff,0x04,0x00,0x00,0x00,0x60,0x00,0x00,0x00,0xdd,0x06,0x00,0x00,0x28,0xfc,0xff,0xff,0x01,0xfc,0xff,0xff,0x5f,0xfa,0xff,0xff,0xb1,0xfc,0xff,0xff,0x34,0x05,0x00,0x00,0x3e,0x07,0x00,0x00,0xea,0x05,0x00,0x00,0x0a,0x05,0x00,0x00,0xd5,0x07,0x00,0x00,0x98,0x07,0x00,0x00,0xf2,0x05,0x00,0x00,0x79,0x05,0x00,0x00,0xde,0x03,0x00,0x00,0x26,0xfc,0xff,0xff,0x29,0xfc,0xff,0xff,0x34,0xfd,0xff,0xff,0x66,0x05,0x00,0x00,0x71,0x05,0x00,0x00,0x8f,0x06,0x00,0x00,0x30,0xfc,0xff,0xff,0xb3,0xfc,0xff,0xff,0xb5,0x05,0x00,0x00,0xa5,0x00,0x00,0x00,0xb2,0xfc,0xff,0xff,0x04,0x00,0x00,0x00,0x60,0x00,0x00,0x00,0xab,0x0d,0x02,0x00,0x1b,0x03,0x02,0x00,0xad,0x02,0x02,0x00,0x8f,0x01,0x02,0x00,0x2f,0x03,0x02,0x00,0xe7,0x0b,0x02,0x00,0x0e,0x0e,0x02,0x00,0xce,0x0c,0x02,0x00,0xd8,0x0b,0x02,0x00,0x85,0x0f,0x02,0x00,0x6a,0x0e,0x02,0x00,0xa8,0x0c,0x02,0x00,0x4e,0x0c,0x02,0x00,0xc3,0x07,0x02,0x00,0xc4,0x02,0x02,0x00,0xa9,0x02,0x02,0x00,0xea,0x03,0x02,0x00,0x5a,0x0c,0x02,0x00,0x64,0x0c,0x02,0x00,0x19,0x0d,0x02,0x00,0xb8,0x02,0x02,0x00,0x2d,0x03,0x02,0x00,0x7b,0x0c,0x02,0x00,0x01,0x08,0x02,0x00,0x1e,0xfd,0xff,0xff,0x04,0x00,0x00,0x00,0x60,0x00,0x00,0x00,0x06,0xfa,0xff,0xff,0x80,0xfb,0xff,0xff,0x1b,0x05,0x00,0x00,0x0b,0xfe,0xff,0xff,0x80,0xfc,0xff,0xff,0x2a,0x05,0x00,0x00,0xa8,0x05,0x00,0x00,0x74,0xfa,0xff,0xff,0x08,0x05,0x00,0x00,0x26,0x06,0x00,0x00,0xdc,0xf9,0xff,0xff,0xe5,0x05,0x00,0x00,0x2c,0x05,0x00,0x00,0xc7,0x04,0x00,0x00,0x96,0xfb,0xff,0xff,0x64,0x04,0x00,0x00,0x87,0xfe,0xff,0xff,0xc4,0x05,0x00,0x00,0x5a,0xfa,0xff,0xff,0x89,0x05,0x00,0x00,0x4c,0xfb,0xff,0xff,0x99,0xfb,0xff,0xff,0xab,0xfa,0xff,0xff,0x87,0xfb,0xff,0xff,0x8a,0xfd,0xff,0xff,0x04,0x00,0x00,0x00,0x60,0x00,0x00,0x00,0x88,0x07,0x00,0x00,0x0a,0xfc,0xff,0xff,0xd9,0xfb,0xff,0xff,0x47,0xfa,0xff,0xff,0x80,0xfc,0xff,0xff,0x68,0x05,0x00,0x00,0xcf,0x07,0x00,0x00,0x5e,0x06,0x00,0x00,0xab,0x05,0x00,0x00,0x16,0x08,0x00,0x00,0x42,0x08,0x00,0x00,0x33,0x06,0x00,0x00,0xe3,0x05,0x00,0x00,0xce,0x04,0x00,0x00,0xf1,0xfb,0xff,0xff,0x1d,0xfc,0xff,0xff,0xf2,0xfc,0xff,0xff,0xe9,0x05,0x00,0x00,0xde,0x05,0x00,0x00,0x1b,0x07,0x00,0x00,0x29,0xfc,0xff,0xff,0xab,0xfc,0xff,0xff,0x14,0x06,0x00,0x00,0xa8,0x00,0x00,0x00,0xf6,0xfd,0xff,0xff,0x04,0x00,0x00,0x00,0x80,0x01,0x00,0x00,0x65,0x0e,0x46,0x0a,0x68,0x65,0x9b,0x6e,0xf8,0xd2,0x59,0x7a,0x94,0x57,0x97,0x2e,0x96,0x68,0xa9,0x91,0xc4,0x60,0xf5,0x6f,0xe2,0xc3,0x34,0xcf,0x02,0x7d,0x55,0xd3,0x67,0x74,0xcc,0x48,0x7a,0xb0,0xcc,0x56,0xe4,0x68,0x8b,0x33,0xca,0xc5,0x8b,0xd5,0x6d,0x6e,0xbc,0xb1,0x13,0x9f,0x15,0x62,0xe2,0xa7,0x63,0x11,0x4a,0x69,0x54,0xf1,0x8c,0xb6,0x34,0x1e,0x70,0x8d,0x54,0xfd,0xb1,0x1b,0x7a,0x9f,0x20,0x2f,0x63,0x0d,0x3c,0xda,0xfa,0xba,0x88,0xb4,0x23,0xa1,0x31,0xdc,0xfd,0x94,0x73,0xf9,0x17,0x32,0x14,0xd9,0xf1,0x69,0x52,0xad,0x0c,0x90,0x30,0x3b,0xae,0xb8,0xc7,0x44,0xdf,0xfc,0xf4,0xea,0x85,0x1e,0xb4,0x1f,0x3d,0x60,0x79,0x0b,0x6b,0xa9,0x95,0x31,0x66,0x69,0xfb,0xe4,0xae,0xaf,0x76,0xd7,0x97,0x8b,0x89,0x8c,0x63,0xa0,0xaf,0x95,0xf5,0x07,0x76,0x4c,0xfb,0x86,0xd4,0x78,0x9f,0x72,0x59,0xd3,0x9e,0xea,0xa6,0xe9,0x92,0xd0,0x2a,0x15,0x23,0xf1,0xd1,0xe8,0x0f,0x92,0x47,0x07,0x11,0xf7,0xba,0x5b,0x4a,0xa8,0x16,0xc6,0xe3,0xc5,0x75,0x47,0xfb,0xc3,0xbf,0x1a,0xa1,0xf9,0x8e,0xd5,0xf8,0x43,0xd4,0x4e,0x2e,0xf0,0x77,0xfb,0x3a,0x50,0x8c,0x76,0x03,0x06,0x0a,0xbc,0xcd,0x6f,0xfd,0xd4,0xab,0x23,0x96,0xb3,0x09,0x06,0xf3,0xfd,0x6e,0x4f,0x4d,0xd2,0xcc,0xc6,0xbe,0x6c,0xea,0xae,0x90,0x8c,0x43,0xfd,0x31,0x42,0xbe,0x9a,0x6b,0xc6,0xe4,0x08,0x42,0x95,0xa3,0x2d,0x9b,0xc1,0x4d,0x16,0xd2,0x33,0x60,0x69,0x14,0x1b,0xb9,0xad,0x31,0xd2,0xe0,0x06,0x52,0x32,0x07,0xe1,0x48,0x26,0xb3,0xed,0xa9,0xbf,0x1f,0x2f,0xa0,0x20,0xfb,0x4e,0x9d,0x88,0xec,0x48,0xd0,0xc0,0xfc,0xc4,0xc6,0x45,0xc7,0x17,0x0e,0x95,0xd5,0xa1,0xfd,0xcd,0x7f,0xa9,0xd0,0x60,0x59,0x28,0x82,0xff,0x35,0x1f,0xf3,0x77,0xc8,0xf5,0xe8,0x5f,0x96,0xdc,0xb9,0x46,0x04,0x70,0x39,0x02,0x0a,0x88,0x72,0xe8,0x3d,0xa0,0xc7,0x60,0x43,0x24,0xc7,0x10,0x16,0x29,0x03,0xad,0x0c,0xcc,0x19,0xec,0x4d,0x06,0xd5,0x24,0xc8,0xd3,0x98,0x4f,0xa1,0x4c,0xc3,0x09,0x74,0x96,0xa9,0x92,0x66,0xea,0xef,0x10,0xe5,0x3c,0xae,0x89,0x60,0xde,0x84,0x20,0x77,0xf3,0xff,0xb3,0x41,0x45,0xa0,0xd1,0xb1,0xcc,0x8b,0xf9,0xde,0x42,0x48,0x47,0xe2,0xf5,0x82,0xff,0xff,0xff,0x04,0x00,0x00,0x00,0x40,0x00,0x00,0x00,0x3a,0xfe,0xff,0xff,0xf2,0x02,0x00,0x00,0x00,0x00,0x00,0x00,0x04,0xff,0xff,0xff,0x35,0x03,0x00,0x00,0x00,0x00,0x00,0x00,0xdd,0x01,0x00,0x00,0x26,0x04,0x00,0x00,0xde,0xfe,0xff,0xff,0x1b,0xfd,0xff,0xff,0x69,0x01,0x00,0x00,0x00,0x00,0x00,0x00,0x88,0xfe,0xff,0xff,0xe8,0x02,0x00,0x00,0x86,0x03,0x00,0x00,0xc4,0xfc,0xff,0xff,0xce,0xff,0xff,0xff,0x04,0x00,0x00,0x00,0x0c,0x00,0x00,0x00,0x01,0x00,0x00,0x00,0x01,0x00,0x00,0x00,0x01,0x00,0x00,0x00,0xe6,0xff,0xff,0xff,0x04,0x00,0x00,0x00,0x0c,0x00,0x00,0x00,0x00,0x00,0x00,0x00,0x00,0x00,0x00,0x00,0x00,0x00,0x00,0x00,0x00,0x00,0x06,0x00,0x08,0x00,0x04,0x00,0x06,0x00,0x00,0x00,0x04,0x00,0x00,0x00,0x0c,0x00,0x00,0x00,0x00,0x00,0x00,0x00,0xff,0xff,0xff,0xff,0x00,0x00,0x00,0x00,0x50,0xef,0xff,0xff,0x54,0xef,0xff,0xff,0x0f,0x00,0x00,0x00,0x4d,0x4c,0x49,0x52,0x20,0x43,0x6f,0x6e,0x76,0x65,0x72,0x74,0x65,0x64,0x2e,0x00,0x01,0x00,0x00,0x00,0x14,0x00,0x00,0x00,0x00,0x00,0x0e,0x00,0x18,0x00,0x14,0x00,0x10,0x00,0x0c,0x00,0x08,0x00,0x04,0x00,0x0e,0x00,0x00,0x00,0x14,0x00,0x00,0x00,0x1c,0x00,0x00,0x00,0x2c,0x02,0x00,0x00,0x30,0x02,0x00,0x00,0x34,0x02,0x00,0x00,0x04,0x00,0x00,0x00,0x6d,0x61,0x69,0x6e,0x00,0x00,0x00,0x00,0x06,0x00,0x00,0x00,0xf4,0x01,0x00,0x00,0x30,0x01,0x00,0x00,0xc0,0x00,0x00,0x00,0x6c,0x00,0x00,0x00,0x34,0x00,0x00,0x00,0x10,0x00,0x00,0x00,0x00,0x00,0x0a,0x00,0x10,0x00,0x0c,0x00,0x08,0x00,0x04,0x00,0x0a,0x00,0x00,0x00,0x0c,0x00,0x00,0x00,0x10,0x00,0x00,0x00,0x04,0x00,0x00,0x00,0x01,0x00,0x00,0x00,0x20,0x00,0x00,0x00,0x01,0x00,0x00,0x00,0x1f,0x00,0x00,0x00,0x8a,0xff,0xff,0xff,0x14,0x00,0x00,0x00,0x00,0x00,0x00,0x08,0x10,0x00,0x00,0x00,0x14,0x00,0x00,0x00,0x03,0x00,0x00,0x00,0x08,0xf0,0xff,0xff,0x01,0x00,0x00,0x00,0x1f,0x00,0x00,0x00,0x03,0x00,0x00,0x00,0x1c,0x00,0x00,0x00,0x1d,0x00,0x00,0x00,0x1e,0x00,0x00,0x00,0xbe,0xff,0xff,0xff,0x1c,0x00,0x00,0x00,0x00,0x00,0x00,0x08,0x1c,0x00,0x00,0x00,0x20,0x00,0x00,0x00,0x03,0x00,0x00,0x00,0x00,0x00,0x06,0x00,0x08,0x00,0x07,0x00,0x06,0x00,0x00,0x00,0x00,0x00,0x00,0x01,0x01,0x00,0x00,0x00,0x1c,0x00,0x00,0x00,0x03,0x00,0x00,0x00,0x1b,0x00,0x00,0x00,0x05,0x00,0x00,0x00,0x04,0x00,0x00,0x00,0x00,0x00,0x0e,0x00,0x1a,0x00,0x14,0x00,0x10,0x00,0x0c,0x00,0x0b,0x00,0x04,0x00,0x0e,0x00,0x00,0x00,0x24,0x00,0x00,0x00,0x00,0x00,0x00,0x20,0x2c,0x00,0x00,0x00,0x30,0x00,0x00,0x00,0x02,0x00,0x00,0x00,0x00,0x00,0x0e,0x00,0x10,0x00,0x0c,0x00,0x08,0x00,0x00,0x00,0x00,0x00,0x04,0x00,0x0e,0x00,0x00,0x00,0x02,0x00,0x00,0x00,0x05,0x00,0x00,0x00,0x05,0x00,0x00,0x00,0x01,0x00,0x00,0x00,0x1b,0x00,0x00,0x00,0x04,0x00,0x00,0x00,0x1a,0x00,0x00,0x00,0x01,0x00,0x00,0x00,0x02,0x00,0x00,0x00,0x03,0x00,0x00,0x00,0x00,0x00,0x16,0x00,0x1c,0x00,0x18,0x00,0x14,0x00,0x10,0x00,0x0f,0x00,0x08,0x00,0x00,0x00,0x00,0x00,0x00,0x00,0x04,0x00,0x16,0x00,0x00,0x00,0x18,0x00,0x00,0x00,0x34,0x00,0x00,0x00,0x00,0x00,0x00,0x47,0x38,0x00,0x00,0x00,0x3c,0x00,0x00,0x00,0x01,0x00,0x00,0x00,0x05,0x00,0x00,0x00,0x15,0x00,0x00,0x00,0x16,0x00,0x00,0x00,0x17,0x00,0x00,0x00,0x18,0x00,0x00,0x00,0x19,0x00,0x00,0x00,0x08,0x00,0x0c,0x00,0x0b,0x00,0x04,0x00,0x08,0x00,0x00,0x00,0x00,0x00,0x20,0x41,0x00,0x00,0x00,0x04,0x01,0x00,0x00,0x00,0x1a,0x00,0x00,0x00,0x18,0x00,0x00,0x00,0x12,0x00,0x00,0x00,0x11,0x00,0x00,0x00,0x10,0x00,0x00,0x00,0x0f,0x00,0x00,0x00,0x0e,0x00,0x00,0x00,0x0d,0x00,0x00,0x00,0x0c,0x00,0x00,0x00,0x0b,0x00,0x00,0x00,0x0a,0x00,0x00,0x00,0xff,0xff,0xff,0xff,0xff,0xff,0xff,0xff,0xff,0xff,0xff,0xff,0x09,0x00,0x00,0x00,0x08,0x00,0x00,0x00,0x07,0x00,0x00,0x00,0x06,0x00,0x00,0x00,0xff,0xff,0xff,0xff,0xff,0xff,0xff,0xff,0x13,0x00,0x00,0x00,0x14,0x00,0x00,0x00,0xff,0xff,0xff,0xff,0xff,0xff,0xff,0xff,0xff,0xff,0xff,0xff,0xff,0xff,0xff,0xff,0x00,0x00,0x0a,0x00,0x0c,0x00,0x00,0x00,0x08,0x00,0x04,0x00,0x0a,0x00,0x00,0x00,0x08,0x00,0x00,0x00,0x0c,0x00,0x00,0x00,0x01,0x00,0x00,0x00,0x12,0x00,0x00,0x00,0x01,0x00,0x00,0x00,0x00,0x00,0x00,0x00,0x01,0x00,0x00,0x00,0x20,0x00,0x00,0x00,0x01,0x00,0x00,0x00,0x00,0x00,0x00,0x00,0x21,0x00,0x00,0x00,0x18,0x0e,0x00,0x00,0xbc,0x0d,0x00,0x00,0x60,0x0d,0x00,0x00,0x1c,0x0d,0x00,0x00,0x90,0x0c,0x00,0x00,0xe0,0x0b,0x00,0x00,0x84,0x0b,0x00,0x00,0x28,0x0b,0x00,0x00,0xcc,0x0a,0x00,0x00,0x70,0x0a,0x00,0x00,0x0c,0x0a,0x00,0x00,0xa8,0x09,0x00,0x00,0x44,0x09,0x00,0x00,0xe0,0x08,0x00,0x00,0x7c,0x08,0x00,0x00,0x18,0x08,0x00,0x00,0xb4,0x07,0x00,0x00,0x50,0x07,0x00,0x00,0x0c,0x06,0x00,0x00,0xac,0x05,0x00,0x00,0x30,0x05,0x00,0x00,0xf4,0x04,0x00,0x00,0x9c,0x04,0x00,0x00,0x60,0x04,0x00,0x00,0x20,0x04,0x00,0x00,0xb4,0x03,0x00,0x00,0x24,0x03,0x00,0x00,0xc0,0x02,0x00,0x00,0x14,0x02,0x00,0x00,0x60,0x01,0x00,0x00,0xe4,0x00,0x00,0x00,0x50,0x00,0x00,0x00,0x04,0x00,0x00,0x00,0x82,0xf2,0xff,0xff,0x00,0x00,0x00,0x01,0x10,0x00,0x00,0x00,0x10,0x00,0x00,0x00,0x1c,0x00,0x00,0x00,0x28,0x00,0x00,0x00,0x6c,0xf2,0xff,0xff,0x19,0x00,0x00,0x00,0x53,0x74,0x61,0x74,0x65,0x66,0x75,0x6c,0x50,0x61,0x72,0x74,0x69,0x74,0x69,0x6f,0x6e,0x65,0x64,0x43,0x61,0x6c,0x6c,0x3a,0x30,0x00,0x00,0x00,0x02,0x00,0x00,0x00,0x01,0x00,0x00,0x00,0x02,0x00,0x00,0x00,0x22,0xf3,0xff,0xff,0x00,0x00,0x00,0x01,0x14,0x00,0x00,0x00,0x30,0x00,0x00,0x00,0x1b,0x00,0x00,0x00,0x00,0x00,0x00,0x09,0x6c,0x00,0x00,0x00,0x2c,0xf4,0xff,0xff,0x08,0x00,0x00,0x00,0x10,0x00,0x00,0x00,0x01,0x00,0x00,0x00,0xeb,0xff,0xff,0xff,0xff,0xff,0xff,0xff,0x01,0x00,0x00,0x00,0x71,0xa7,0x38,0x3c,0x40,0x00,0x00,0x00,0x73,0x65,0x71,0x75,0x65,0x6e,0x74,0x69,0x61,0x6c,0x2f,0x71,0x75,0x61,0x6e,0x74,0x5f,0x64,0x65,0x6e,0x73,0x65,0x5f,0x31,0x2f,0x4d,0x61,0x74,0x4d,0x75,0x6c,0x3b,0x73,0x65,0x71,0x75,0x65,0x6e,0x74,0x69,0x61,0x6c,0x2f,0x71,0x75,0x61,0x6e,0x74,0x5f,0x64,0x65,0x6e,0x73,0x65,0x5f,0x31,0x2f,0x42,0x69,0x61,0x73,0x41,0x64,0x64,0x00,0x00,0x00,0x00,0x02,0x00,0x00,0x00,0x01,0x00,0x00,0x00,0x02,0x00,0x00,0x00,0xb2,0xf3,0xff,0xff,0x00,0x00,0x00,0x01,0x14,0x00,0x00,0x00,0x30,0x00,0x00,0x00,0x1a,0x00,0x00,0x00,0x00,0x00,0x00,0x02,0x58,0x00,0x00,0x00,0xbc,0xf4,0xff,0xff,0x08,0x00,0x00,0x00,0x10,0x00,0x00,0x00,0x01,0x00,0x00,0x00,0x00,0x00,0x00,0x00,0x00,0x00,0x00,0x00,0x01,0x00,0x00,0x00,0xd7,0x07,0x61,0x38,0x2f,0x00,0x00,0x00,0x73,0x65,0x71,0x75,0x65,0x6e,0x74,0x69,0x61,0x6c,0x2f,0x71,0x75,0x61,0x6e,0x74,0x5f,0x64,0x65,0x6e,0x73,0x65,0x5f,0x31,0x2f,0x42,0x69,0x61,0x73,0x41,0x64,0x64,0x2f,0x52,0x65,0x61,0x64,0x56,0x61,0x72,0x69,0x61,0x62,0x6c,0x65,0x4f,0x70,0x00,0x01,0x00,0x00,0x00,0x02,0x00,0x00,0x00,0x2a,0xf4,0xff,0xff,0x00,0x00,0x00,0x01,0x14,0x00,0x00,0x00,0x34,0x00,0x00,0x00,0x19,0x00,0x00,0x00,0x00,0x00,0x00,0x09,0x8c,0x00,0x00,0x00,0x34,0xf5,0xff,0xff,0x08,0x00,0x00,0x00,0x14,0x00,0x00,0x00,0x01,0x00,0x00,0x00,0x00,0x00,0x00,0x00,0x00,0x00,0x00,0x00,0x00,0x00,0x00,0x00,0x01,0x00,0x00,0x00,0x9f,0x36,0x8f,0x3b,0x5f,0x00,0x00,0x00,0x73,0x65,0x71,0x75,0x65,0x6e,0x74,0x69,0x61,0x6c,0x2f,0x71,0x75,0x61,0x6e,0x74,0x5f,0x64,0x65,0x6e,0x73,0x65,0x5f,0x31,0x2f,0x4d,0x61,0x74,0x4d,0x75,0x6c,0x3b,0x73,0x65,0x71,0x75,0x65,0x6e,0x74,0x69,0x61,0x6c,0x2f,0x71,0x75,0x61,0x6e,0x74,0x5f,0x64,0x65,0x6e,0x73,0x65,0x5f,0x31,0x2f,0x4c,0x61,0x73,0x74,0x56,0x61,0x6c,0x75,0x65,0x51,0x75,0x61,0x6e,0x74,0x2f,0x46,0x61,0x6b,0x65,0x51,0x75,0x61,0x6e,0x74,0x57,0x69,0x74,0x68,0x4d,0x69,0x6e,0x4d,0x61,0x78,0x56,0x61,0x72,0x73,0x00,0x02,0x00,0x00,0x00,0x02,0x00,0x00,0x00,0x10,0x00,0x00,0x00,0xda,0xf4,0xff,0xff,0x00,0x00,0x00,0x01,0x14,0x00,0x00,0x00,0x30,0x00,0x00,0x00,0x18,0x00,0x00,0x00,0x00,0x00,0x00,0x09,0x84,0x00,0x00,0x00,0xe4,0xf5,0xff,0xff,0x08,0x00,0x00,0x00,0x10,0x00,0x00,0x00,0x01,0x00,0x00,0x00,0xe2,0xff,0xff,0xff,0xff,0xff,0xff,0xff,0x01,0x00,0x00,0x00,0x3c,0x20,0x49,0x3c,0x58,0x00,0x00,0x00,0x73,0x65,0x71,0x75,0x65,0x6e,0x74,0x69,0x61,0x6c,0x2f,0x71,0x75,0x61,0x6e,0x74,0x5f,0x64,0x65,0x6e,0x73,0x65,0x2f,0x4d,0x61,0x74,0x4d,0x75,0x6c,0x3b,0x73,0x65,0x71,0x75,0x65,0x6e,0x74,0x69,0x61,0x6c,0x2f,0x71,0x75,0x61,0x6e,0x74,0x5f,0x64,0x65,0x6e,0x73,0x65,0x2f,0x52,0x65,0x6c,0x75,0x3b,0x73,0x65,0x71,0x75,0x65,0x6e,0x74,0x69,0x61,0x6c,0x2f,0x71,0x75,0x61,0x6e,0x74,0x5f,0x64,0x65,0x6e,0x73,0x65,0x2f,0x42,0x69,0x61,0x73,0x41,0x64,0x64,0x00,0x00,0x00,0x00,0x02,0x00,0x00,0x00,0x01,0x00,0x00,0x00,0x10,0x00,0x00,0x00,0x82,0xf5,0xff,0xff,0x00,0x00,0x00,0x01,0x14,0x00,0x00,0x00,0x30,0x00,0x00,0x00,0x17,0x00,0x00,0x00,0x00,0x00,0x00,0x09,0x3c,0x00,0x00,0x00,0x8c,0xf6,0xff,0xff,0x08,0x00,0x00,0x00,0x10,0x00,0x00,0x00,0x01,0x00,0x00,0x00,0xfb,0xff,0xff,0xff,0xff,0xff,0xff,0xff,0x01,0x00,0x00,0x00,0xf8,0x0f,0x86,0x3b,0x11,0x00,0x00,0x00,0x74,0x66,0x6c,0x2e,0x73,0x74,0x72,0x69,0x64,0x65,0x64,0x5f,0x73,0x6c,0x69,0x63,0x65,0x00,0x00,0x00,0x02,0x00,0x00,0x00,0x01,0x00,0x00,0x00,0x18,0x00,0x00,0x00,0xe2,0xf5,0xff,0xff,0x00,0x00,0x00,0x01,0x14,0x00,0x00,0x00,0x30,0x00,0x00,0x00,0x16,0x00,0x00,0x00,0x00,0x00,0x00,0x09,0x4c,0x00,0x00,0x00,0xec,0xf6,0xff,0xff,0x08,0x00,0x00,0x00,0x10,0x00,0x00,0x00,0x01,0x00,0x00,0x00,0xfb,0xff,0xff,0xff,0xff,0xff,0xff,0xff,0x01,0x00,0x00,0x00,0xf8,0x0f,0x86,0x3b,0x20,0x00,0x00,0x00,0x74,0x66,0x6c,0x2e,0x75,0x6e,0x69,0x64,0x69,0x72,0x65,0x63,0x74,0x69,0x6f,0x6e,0x61,0x6c,0x5f,0x73,0x65,0x71,0x75,0x65,0x6e,0x63,0x65,0x5f,0x6c,0x73,0x74,0x6d,0x00,0x00,0x00,0x00,0x03,0x00,0x00,0x00,0x01,0x00,0x00,0x00,0x18,0x00,0x00,0x00,0x18,0x00,0x00,0x00,0x00,0x00,0x16,0x00,0x18,0x00,0x14,0x00,0x13,0x00,0x00,0x00,0x0c,0x00,0x08,0x00,0x00,0x00,0x00,0x00,0x00,0x00,0x07,0x00,0x16,0x00,0x00,0x00,0x00,0x00,0x00,0x01,0x10,0x00,0x00,0x00,0x2c,0x00,0x00,0x00,0x00,0x00,0x00,0x09,0x4c,0x00,0x00,0x00,0x74,0xf7,0xff,0xff,0x08,0x00,0x00,0x00,0x10,0x00,0x00,0x00,0x01,0x00,0x00,0x00,0xfb,0xff,0xff,0xff,0xff,0xff,0xff,0xff,0x01,0x00,0x00,0x00,0xf8,0x0f,0x86,0x3b,0x23,0x00,0x00,0x00,0x65,0x66,0x66,0x65,0x63,0x74,0x69,0x76,0x65,0x5f,0x68,0x69,0x64,0x64,0x65,0x6e,0x5f,0x73,0x63,0x61,0x6c,0x65,0x5f,0x69,0x6e,0x74,0x65,0x72,0x6d,0x65,0x64,0x69,0x61,0x74,0x65,0x00,0x01,0x00,0x00,0x00,0x00,0x00,0x00,0x00,0x4e,0xff,0xff,0xff,0x00,0x00,0x00,0x01,0x08,0x00,0x00,0x00,0x28,0x00,0x00,0x00,0x1c,0x00,0x00,0x00,0x69,0x6e,0x70,0x75,0x74,0x5f,0x74,0x6f,0x5f,0x6f,0x75,0x74,0x70,0x75,0x74,0x5f,0x69,0x6e,0x74,0x65,0x72,0x6d,0x65,0x64,0x69,0x61,0x74,0x65,0x00,0x00,0x00,0x00,0x01,0x00,0x00,0x00,0x00,0x00,0x00,0x00,0x8a,0xff,0xff,0xff,0x00,0x00,0x00,0x01,0x08,0x00,0x00,0x00,0x24,0x00,0x00,0x00,0x1a,0x00,0x00,0x00,0x69,0x6e,0x70,0x75,0x74,0x5f,0x74,0x6f,0x5f,0x63,0x65,0x6c,0x6c,0x5f,0x69,0x6e,0x74,0x65,0x72,0x6d,0x65,0x64,0x69,0x61,0x74,0x65,0x00,0x00,0x01,0x00,0x00,0x00,0x00,0x00,0x00,0x00,0xc2,0xff,0xff,0xff,0x00,0x00,0x00,0x01,0x08,0x00,0x00,0x00,0x28,0x00,0x00,0x00,0x1c,0x00,0x00,0x00,0x69,0x6e,0x70,0x75,0x74,0x5f,0x74,0x6f,0x5f,0x66,0x6f,0x72,0x67,0x65,0x74,0x5f,0x69,0x6e,0x74,0x65,0x72,0x6d,0x65,0x64,0x69,0x61,0x74,0x65,0x00,0x00,0x00,0x00,0x01,0x00,0x00,0x00,0x00,0x00,0x00,0x00,0x00,0x00,0x16,0x00,0x10,0x00,0x0c,0x00,0x00,0x00,0x00,0x00,0x08,0x00,0x00,0x00,0x00,0x00,0x00,0x00,0x00,0x00,0x07,0x00,0x16,0x00,0x00,0x00,0x00,0x00,0x00,0x01,0x08,0x00,0x00,0x00,0x24,0x00,0x00,0x00,0x1b,0x00,0x00,0x00,0x69,0x6e,0x70,0x75,0x74,0x5f,0x74,0x6f,0x5f,0x69,0x6e,0x70,0x75,0x74,0x5f,0x69,0x6e,0x74,0x65,0x72,0x6d,0x65,0x64,0x69,0x61,0x74,0x65,0x00,0x01,0x00,0x00,0x00,0x00,0x00,0x00,0x00,0x9e,0xff,0xff,0xff,0x00,0x00,0x01,0x01,0x10,0x00,0x00,0x00,0x30,0x00,0x00,0x00,0x00,0x00,0x00,0x07,0x40,0x00,0x00,0x00,0xdc,0xf8,0xff,0xff,0x08,0x00,0x00,0x00,0x14,0x00,0x00,0x00,0x01,0x00,0x00,0x00,0x00,0x00,0x00,0x00,0x00,0x00,0x00,0x00,0x00,0x00,0x00,0x00,0x01,0x00,0x00,0x00,0x00,0x00,0x80,0x38,0x12,0x00,0x00,0x00,0x74,0x66,0x6c,0x2e,0x70,0x73,0x65,0x75,0x64,0x6f,0x5f,0x71,0x63,0x6f,0x6e,0x73,0x74,0x31,0x00,0x00,0x02,0x00,0x00,0x00,0x01,0x00,0x00,0x00,0x18,0x00,0x00,0x00,0x00,0x00,0x16,0x00,0x18,0x00,0x14,0x00,0x13,0x00,0x00,0x00,0x0c,0x00,0x08,0x00,0x07,0x00,0x00,0x00,0x00,0x00,0x06,0x00,0x16,0x00,0x00,0x00,0x00,0x00,0x01,0x01,0x10,0x00,0x00,0x00,0x2c,0x00,0x00,0x00,0x00,0x00,0x00,0x09,0x3c,0x00,0x00,0x00,0x54,0xf9,0xff,0xff,0x08,0x00,0x00,0x00,0x10,0x00,0x00,0x00,0x01,0x00,0x00,0x00,0xfb,0xff,0xff,0xff,0xff,0xff,0xff,0xff,0x01,0x00,0x00,0x00,0xf8,0x0f,0x86,0x3b,0x11,0x00,0x00,0x00,0x74,0x66,0x6c,0x2e,0x70,0x73,0x65,0x75,0x64,0x6f,0x5f,0x71,0x63,0x6f,0x6e,0x73,0x74,0x00,0x00,0x00,0x02,0x00,0x00,0x00,0x01,0x00,0x00,0x00,0x18,0x00,0x00,0x00,0xaa,0xf8,0xff,0xff,0x00,0x00,0x00,0x01,0x14,0x00,0x00,0x00,0x34,0x00,0x00,0x00,0x13,0x00,0x00,0x00,0x00,0x00,0x00,0x09,0x18,0x01,0x00,0x00,0xb4,0xf9,0xff,0xff,0x08,0x00,0x00,0x00,0x14,0x00,0x00,0x00,0x01,0x00,0x00,0x00,0x80,0xff,0xff,0xff,0xff,0xff,0xff,0xff,0x00,0x00,0x00,0x00,0x01,0x00,0x00,0x00,0x81,0x80,0x80,0x3b,0xeb,0x00,0x00,0x00,0x73,0x65,0x71,0x75,0x65,0x6e,0x74,0x69,0x61,0x6c,0x2f,0x71,0x75,0x61,0x6e,0x74,0x69,0x7a,0x65,0x5f,0x6c,0x61,0x79,0x65,0x72,0x2f,0x41,0x6c,0x6c,0x56,0x61,0x6c,0x75,0x65,0x73,0x51,0x75,0x61,0x6e,0x74,0x69,0x7a,0x65,0x2f,0x46,0x61,0x6b,0x65,0x51,0x75,0x61,0x6e,0x74,0x57,0x69,0x74,0x68,0x4d,0x69,0x6e,0x4d,0x61,0x78,0x56,0x61,0x72,0x73,0x3b,0x73,0x65,0x71,0x75,0x65,0x6e,0x74,0x69,0x61,0x6c,0x2f,0x71,0x75,0x61,0x6e,0x74,0x69,0x7a,0x65,0x5f,0x6c,0x61,0x79,0x65,0x72,0x2f,0x41,0x6c,0x6c,0x56,0x61,0x6c,0x75,0x65,0x73,0x51,0x75,0x61,0x6e,0x74,0x69,0x7a,0x65,0x2f,0x46,0x61,0x6b,0x65,0x51,0x75,0x61,0x6e,0x74,0x57,0x69,0x74,0x68,0x4d,0x69,0x6e,0x4d,0x61,0x78,0x56,0x61,0x72,0x73,0x2f,0x52,0x65,0x61,0x64,0x56,0x61,0x72,0x69,0x61,0x62,0x6c,0x65,0x4f,0x70,0x3b,0x73,0x65,0x71,0x75,0x65,0x6e,0x74,0x69,0x61,0x6c,0x2f,0x71,0x75,0x61,0x6e,0x74,0x69,0x7a,0x65,0x5f,0x6c,0x61,0x79,0x65,0x72,0x2f,0x41,0x6c,0x6c,0x56,0x61,0x6c,0x75,0x65,0x73,0x51,0x75,0x61,0x6e,0x74,0x69,0x7a,0x65,0x2f,0x46,0x61,0x6b,0x65,0x51,0x75,0x61,0x6e,0x74,0x57,0x69,0x74,0x68,0x4d,0x69,0x6e,0x4d,0x61,0x78,0x56,0x61,0x72,0x73,0x2f,0x52,0x65,0x61,0x64,0x56,0x61,0x72,0x69,0x61,0x62,0x6c,0x65,0x4f,0x70,0x5f,0x31,0x00,0x03,0x00,0x00,0x00,0x01,0x00,0x00,0x00,0x18,0x00,0x00,0x00,0x0c,0x00,0x00,0x00,0xea,0xf9,0xff,0xff,0x00,0x00,0x00,0x01,0x14,0x00,0x00,0x00,0x34,0x00,0x00,0x00,0x12,0x00,0x00,0x00,0x00,0x00,0x00,0x09,0x3c,0x00,0x00,0x00,0xf4,0xfa,0xff,0xff,0x08,0x00,0x00,0x00,0x14,0x00,0x00,0x00,0x01,0x00,0x00,0x00,0x00,0x00,0x00,0x00,0x00,0x00,0x00,0x00,0x00,0x00,0x00,0x00,0x01,0x00,0x00,0x00,0xa2,0xf2,0xfe,0x3a,0x0f,0x00,0x00,0x00,0x61,0x72,0x69,0x74,0x68,0x2e,0x63,0x6f,0x6e,0x73,0x74,0x61,0x6e,0x74,0x38,0x00,0x02,0x00,0x00,0x00,0x18,0x00,0x00,0x00,0x0c,0x00,0x00,0x00,0x4a,0xfa,0xff,0xff,0x00,0x00,0x00,0x01,0x14,0x00,0x00,0x00,0x34,0x00,0x00,0x00,0x11,0x00,0x00,0x00,0x00,0x00,0x00,0x09,0x3c,0x00,0x00,0x00,0x54,0xfb,0xff,0xff,0x08,0x00,0x00,0x00,0x14,0x00,0x00,0x00,0x01,0x00,0x00,0x00,0x00,0x00,0x00,0x00,0x00,0x00,0x00,0x00,0x00,0x00,0x00,0x00,0x01,0x00,0x00,0x00,0x22,0xbe,0xfb,0x3a,0x0f,0x00,0x00,0x00,0x61,0x72,0x69,0x74,0x68,0x2e,0x63,0x6f,0x6e,0x73,0x74,0x61,0x6e,0x74,0x39,0x00,0x02,0x00,0x00,0x00,0x18,0x00,0x00,0x00,0x0c,0x00,0x00,0x00,0xaa,0xfa,0xff,0xff,0x00,0x00,0x00,0x01,0x14,0x00,0x00,0x00,0x30,0x00,0x00,0x00,0x10,0x00,0x00,0x00,0x00,0x00,0x00,0x09,0x3c,0x00,0x00,0x00,0xb4,0xfb,0xff,0xff,0x08,0x00,0x00,0x00,0x10,0x00,0x00,0x00,0x01,0x00,0x00,0x00,0x00,0x00,0x00,0x00,0x00,0x00,0x00,0x00,0x01,0x00,0x00,0x00,0x17,0xd0,0xf7,0x3a,0x10,0x00,0x00,0x00,0x61,0x72,0x69,0x74,0x68,0x2e,0x63,0x6f,0x6e,0x73,0x74,0x61,0x6e,0x74,0x31,0x30,0x00,0x00,0x00,0x00,0x02,0x00,0x00,0x00,0x18,0x00,0x00,0x00,0x0c,0x00,0x00,0x00,0x0a,0xfb,0xff,0xff,0x00,0x00,0x00,0x01,0x14,0x00,0x00,0x00,0x30,0x00,0x00,0x00,0x0f,0x00,0x00,0x00,0x00,0x00,0x00,0x09,0x3c,0x00,0x00,0x00,0x14,0xfc,0xff,0xff,0x08,0x00,0x00,0x00,0x10,0x00,0x00,0x00,0x01,0x00,0x00,0x00,0x00,0x00,0x00,0x00,0x00,0x00,0x00,0x00,0x01,0x00,0x00,0x00,0x21,0x37,0xf5,0x3a,0x10,0x00,0x00,0x00,0x61,0x72,0x69,0x74,0x68,0x2e,0x63,0x6f,0x6e,0x73,0x74,0x61,0x6e,0x74,0x31,0x31,0x00,0x00,0x00,0x00,0x02,0x00,0x00,0x00,0x18,0x00,0x00,0x00,0x0c,0x00,0x00,0x00,0x6a,0xfb,0xff,0xff,0x00,0x00,0x00,0x01,0x14,0x00,0x00,0x00,0x34,0x00,0x00,0x00,0x0e,0x00,0x00,0x00,0x00,0x00,0x00,0x09,0x3c,0x00,0x00,0x00,0x74,0xfc,0xff,0xff,0x08,0x00,0x00,0x00,0x14,0x00,0x00,0x00,0x01,0x00,0x00,0x00,0x00,0x00,0x00,0x00,0x00,0x00,0x00,0x00,0x00,0x00,0x00,0x00,0x01,0x00,0x00,0x00,0x1c,0x88,0x2a,0x3b,0x0e,0x00,0x00,0x00,0x61,0x72,0x69,0x74,0x68,0x2e,0x63,0x6f,0x6e,0x73,0x74,0x61,0x6e,0x74,0x00,0x00,0x02,0x00,0x00,0x00,0x18,0x00,0x00,0x00,0x18,0x00,0x00,0x00,0xca,0xfb,0xff,0xff,0x00,0x00,0x00,0x01,0x14,0x00,0x00,0x00,0x34,0x00,0x00,0x00,0x0d,0x00,0x00,0x00,0x00,0x00,0x00,0x09,0x3c,0x00,0x00,0x00,0xd4,0xfc,0xff,0xff,0x08,0x00,0x00,0x00,0x14,0x00,0x00,0x00,0x01,0x00,0x00,0x00,0x00,0x00,0x00,0x00,0x00,0x00,0x00,0x00,0x00,0x00,0x00,0x00,0x01,0x00,0x00,0x00,0x14,0xd7,0x19,0x3b,0x0f,0x00,0x00,0x00,0x61,0x72,0x69,0x74,0x68,0x2e,0x63,0x6f,0x6e,0x73,0x74,0x61,0x6e,0x74,0x31,0x00,0x02,0x00,0x00,0x00,0x18,0x00,0x00,0x00,0x18,0x00,0x00,0x00,0x2a,0xfc,0xff,0xff,0x00,0x00,0x00,0x01,0x14,0x00,0x00,0x00,0x34,0x00,0x00,0x00,0x0c,0x00,0x00,0x00,0x00,0x00,0x00,0x09,0x3c,0x00,0x00,0x00,0x34,0xfd,0xff,0xff,0x08,0x00,0x00,0x00,0x14,0x00,0x00,0x00,0x01,0x00,0x00,0x00,0x00,0x00,0x00,0x00,0x00,0x00,0x00,0x00,0x00,0x00,0x00,0x00,0x01,0x00,0x00,0x00,0xd5,0x4b,0x1c,0x3b,0x0f,0x00,0x00,0x00,0x61,0x72,0x69,0x74,0x68,0x2e,0x63,0x6f,0x6e,0x73,0x74,0x61,0x6e,0x74,0x32,0x00,0x02,0x00,0x00,0x00,0x18,0x00,0x00,0x00,0x18,0x00,0x00,0x00,0x8a,0xfc,0xff,0xff,0x00,0x00,0x00,0x01,0x14,0x00,0x00,0x00,0x34,0x00,0x00,0x00,0x0b,0x00,0x00,0x00,0x00,0x00,0x00,0x09,0x3c,0x00,0x00,0x00,0x94,0xfd,0xff,0xff,0x08,0x00,0x00,0x00,0x14,0x00,0x00,0x00,0x01,0x00,0x00,0x00,0x00,0x00,0x00,0x00,0x00,0x00,0x00,0x00,0x00,0x00,0x00,0x00,0x01,0x00,0x00,0x00,0xde,0x19,0x51,0x3b,0x0f,0x00,0x00,0x00,0x61,0x72,0x69,0x74,0x68,0x2e,0x63,0x6f,0x6e,0x73,0x74,0x61,0x6e,0x74,0x33,0x00,0x02,0x00,0x00,0x00,0x18,0x00,0x00,0x00,0x18,0x00,0x00,0x00,0xea,0xfc,0xff,0xff,0x00,0x00,0x00,0x01,0x14,0x00,0x00,0x00,0x30,0x00,0x00,0x00,0x0a,0x00,0x00,0x00,0x00,0x00,0x00,0x02,0x38,0x00,0x00,0x00,0xf4,0xfd,0xff,0xff,0x08,0x00,0x00,0x00,0x10,0x00,0x00,0x00,0x01,0x00,0x00,0x00,0x00,0x00,0x00,0x00,0x00,0x00,0x00,0x00,0x01,0x00,0x00,0x00,0x96,0xf2,0xff,0x36,0x0f,0x00,0x00,0x00,0x61,0x72,0x69,0x74,0x68,0x2e,0x63,0x6f,0x6e,0x73,0x74,0x61,0x6e,0x74,0x34,0x00,0x01,0x00,0x00,0x00,0x18,0x00,0x00,0x00,0x42,0xfd,0xff,0xff,0x00,0x00,0x00,0x01,0x14,0x00,0x00,0x00,0x30,0x00,0x00,0x00,0x09,0x00,0x00,0x00,0x00,0x00,0x00,0x02,0x38,0x00,0x00,0x00,0x4c,0xfe,0xff,0xff,0x08,0x00,0x00,0x00,0x10,0x00,0x00,0x00,0x01,0x00,0x00,0x00,0x00,0x00,0x00,0x00,0x00,0x00,0x00,0x00,0x01,0x00,0x00,0x00,0xde,0xba,0xfc,0x36,0x0f,0x00,0x00,0x00,0x61,0x72,0x69,0x74,0x68,0x2e,0x63,0x6f,0x6e,0x73,0x74,0x61,0x6e,0x74,0x35,0x00,0x01,0x00,0x00,0x00,0x18,0x00,0x00,0x00,0x9a,0xfd,0xff,0xff,0x00,0x00,0x00,0x01,0x14,0x00,0x00,0x00,0x30,0x00,0x00,0x00,0x08,0x00,0x00,0x00,0x00,0x00,0x00,0x02,0x38,0x00,0x00,0x00,0xa4,0xfe,0xff,0xff,0x08,0x00,0x00,0x00,0x10,0x00,0x00,0x00,0x01,0x00,0x00,0x00,0x00,0x00,0x00,0x00,0x00,0x00,0x00,0x00,0x01,0x00,0x00,0x00,0xe1,0xc8,0xf8,0x36,0x0f,0x00,0x00,0x00,0x61,0x72,0x69,0x74,0x68,0x2e,0x63,0x6f,0x6e,0x73,0x74,0x61,0x6e,0x74,0x36,0x00,0x01,0x00,0x00,0x00,0x18,0x00,0x00,0x00,0xf2,0xfd,0xff,0xff,0x00,0x00,0x00,0x01,0x14,0x00,0x00,0x00,0x30,0x00,0x00,0x00,0x07,0x00,0x00,0x00,0x00,0x00,0x00,0x02,0x38,0x00,0x00,0x00,0xfc,0xfe,0xff,0xff,0x08,0x00,0x00,0x00,0x10,0x00,0x00,0x00,0x01,0x00,0x00,0x00,0x00,0x00,0x00,0x00,0x00,0x00,0x00,0x00,0x01,0x00,0x00,0x00,0x4f,0x2d,0xf6,0x36,0x0f,0x00,0x00,0x00,0x61,0x72,0x69,0x74,0x68,0x2e,0x63,0x6f,0x6e,0x73,0x74,0x61,0x6e,0x74,0x37,0x00,0x01,0x00,0x00,0x00,0x18,0x00,0x00,0x00,0x4a,0xfe,0xff,0xff,0x00,0x00,0x00,0x01,0x14,0x00,0x00,0x00,0x34,0x00,0x00,0x00,0x06,0x00,0x00,0x00,0x00,0x00,0x00,0x09,0x88,0x00,0x00,0x00,0x54,0xff,0xff,0xff,0x08,0x00,0x00,0x00,0x14,0x00,0x00,0x00,0x01,0x00,0x00,0x00,0x00,0x00,0x00,0x00,0x00,0x00,0x00,0x00,0x00,0x00,0x00,0x00,0x01,0x00,0x00,0x00,0x16,0xc6,0x4c,0x3b,0x5b,0x00,0x00,0x00,0x73,0x65,0x71,0x75,0x65,0x6e,0x74,0x69,0x61,0x6c,0x2f,0x71,0x75,0x61,0x6e,0x74,0x5f,0x64,0x65,0x6e,0x73,0x65,0x2f,0x4d,0x61,0x74,0x4d,0x75,0x6c,0x3b,0x73,0x65,0x71,0x75,0x65,0x6e,0x74,0x69,0x61,0x6c,0x2f,0x71,0x75,0x61,0x6e,0x74,0x5f,0x64,0x65,0x6e,0x73,0x65,0x2f,0x4c,0x61,0x73,0x74,0x56,0x61,0x6c,0x75,0x65,0x51,0x75,0x61,0x6e,0x74,0x2f,0x46,0x61,0x6b,0x65,0x51,0x75,0x61,0x6e,0x74,0x57,0x69,0x74,0x68,0x4d,0x69,0x6e,0x4d,0x61,0x78,0x56,0x61,0x72,0x73,0x00,0x02,0x00,0x00,0x00,0x10,0x00,0x00,0x00,0x18,0x00,0x00,0x00,0xf6,0xfe,0xff,0xff,0x00,0x00,0x00,0x01,0x20,0x00,0x00,0x00,0x40,0x00,0x00,0x00,0x05,0x00,0x00,0x00,0x00,0x00,0x00,0x02,0x68,0x00,0x00,0x00,0x0c,0x00,0x0c,0x00,0x00,0x00,0x00,0x00,0x08,0x00,0x04,0x00,0x0c,0x00,0x00,0x00,0x08,0x00,0x00,0x00,0x14,0x00,0x00,0x00,0x01,0x00,0x00,0x00,0x00,0x00,0x00,0x00,0x00,0x00,0x00,0x00,0x00,0x00,0x00,0x00,0x01,0x00,0x00,0x00,0xeb,0x78,0x56,0x37,0x2d,0x00,0x00,0x00,0x73,0x65,0x71,0x75,0x65,0x6e,0x74,0x69,0x61,0x6c,0x2f,0x71,0x75,0x61,0x6e,0x74,0x5f,0x64,0x65,0x6e,0x73,0x65,0x2f,0x42,0x69,0x61,0x73,0x41,0x64,0x64,0x2f,0x52,0x65,0x61,0x64,0x56,0x61,0x72,0x69,0x61,0x62,0x6c,0x65,0x4f,0x70,0x00,0x00,0x00,0x01,0x00,0x00,0x00,0x10,0x00,0x00,0x00,0x7e,0xff,0xff,0xff,0x00,0x00,0x00,0x01,0x14,0x00,0x00,0x00,0x14,0x00,0x00,0x00,0x04,0x00,0x00,0x00,0x00,0x00,0x00,0x02,0x20,0x00,0x00,0x00,0x14,0xff,0xff,0xff,0x10,0x00,0x00,0x00,0x61,0x72,0x69,0x74,0x68,0x2e,0x63,0x6f,0x6e,0x73,0x74,0x61,0x6e,0x74,0x31,0x32,0x00,0x00,0x00,0x00,0x01,0x00,0x00,0x00,0x03,0x00,0x00,0x00,0xbe,0xff,0xff,0xff,0x00,0x00,0x00,0x01,0x14,0x00,0x00,0x00,0x14,0x00,0x00,0x00,0x03,0x00,0x00,0x00,0x00,0x00,0x00,0x02,0x20,0x00,0x00,0x00,0x54,0xff,0xff,0xff,0x10,0x00,0x00,0x00,0x61,0x72,0x69,0x74,0x68,0x2e,0x63,0x6f,0x6e,0x73,0x74,0x61,0x6e,0x74,0x31,0x33,0x00,0x00,0x00,0x00,0x01,0x00,0x00,0x00,0x03,0x00,0x00,0x00,0x00,0x00,0x16,0x00,0x1c,0x00,0x18,0x00,0x17,0x00,0x10,0x00,0x0c,0x00,0x08,0x00,0x00,0x00,0x00,0x00,0x00,0x00,0x07,0x00,0x16,0x00,0x00,0x00,0x00,0x00,0x00,0x01,0x14,0x00,0x00,0x00,0x14,0x00,0x00,0x00,0x02,0x00,0x00,0x00,0x00,0x00,0x00,0x02,0x20,0x00,0x00,0x00,0xac,0xff,0xff,0xff,0x10,0x00,0x00,0x00,0x61,0x72,0x69,0x74,0x68,0x2e,0x63,0x6f,0x6e,0x73,0x74,0x61,0x6e,0x74,0x31,0x34,0x00,0x00,0x00,0x00,0x01,0x00,0x00,0x00,0x03,0x00,0x00,0x00,0x00,0x00,0x16,0x00,0x18,0x00,0x14,0x00,0x00,0x00,0x10,0x00,0x0c,0x00,0x08,0x00,0x00,0x00,0x00,0x00,0x00,0x00,0x07,0x00,0x16,0x00,0x00,0x00,0x00,0x00,0x00,0x01,0x14,0x00,0x00,0x00,0x14,0x00,0x00,0x00,0x01,0x00,0x00,0x00,0x24,0x00,0x00,0x00,0x04,0x00,0x04,0x00,0x04,0x00,0x00,0x00,0x13,0x00,0x00,0x00,0x73,0x65,0x72,0x76,0x69,0x6e,0x67,0x5f,0x64,0x65,0x66,0x61,0x75,0x6c,0x74,0x5f,0x78,0x3a,0x30,0x00,0x03,0x00,0x00,0x00,0x01,0x00,0x00,0x00,0x18,0x00,0x00,0x00,0x0c,0x00,0x00,0x00,0x05,0x00,0x00,0x00,0x68,0x00,0x00,0x00,0x4c,0x00,0x00,0x00,0x38,0x00,0x00,0x00,0x18,0x00,0x00,0x00,0x04,0x00,0x00,0x00,0xe0,0xff,0xff,0xff,0x06,0x00,0x00,0x00,0x02,0x00,0x00,0x00,0x00,0x00,0x00,0x06,0xf0,0xff,0xff,0xff,0x09,0x00,0x00,0x00,0x04,0x00,0x00,0x00,0x00,0x00,0x00,0x09,0x0c,0x00,0x10,0x00,0x0f,0x00,0x00,0x00,0x08,0x00,0x04,0x00,0x0c,0x00,0x00,0x00,0x2d,0x00,0x00,0x00,0x02,0x00,0x00,0x00,0x00,0x00,0x00,0x2d,0xf4,0xff,0xff,0xff,0x2c,0x00,0x00,0x00,0x00,0x00,0x00,0x2c,0x0c,0x00,0x0c,0x00,0x0b,0x00,0x00,0x00,0x00,0x00,0x04,0x00,0x0c,0x00,0x00,0x00,0x72,0x00,0x00,0x00,0x00,0x00,0x00,0x72};

const int environment_model_len = 9688;

#endif // ENVIRONMENT_MODEL_DATA_LSTM_H
