#ifndef ENVIRONMENT_MODEL_DATA_MLP_H
#define ENVIRONMENT_MODEL_DATA_MLP_H

#include <cstdint>

alignas(8) const unsigned char environment_model[] = {0x20,0x00,0x00,0x00,0x54,0x46,0x4c,0x33,0x00,0x00,0x00,0x00,0x14,0x00,0x20,0x00,0x1c,0x00,0x18,0x00,0x14,0x00,0x10,0x00,0x0c,0x00,0x00,0x00,0x08,0x00,0x04,0x00,0x14,0x00,0x00,0x00,0x1c,0x00,0x00,0x00,0x94,0x00,0x00,0x00,0xec,0x00,0x00,0x00,0x48,0x14,0x00,0x00,0x58,0x14,0x00,0x00,0x7c,0x19,0x00,0x00,0x03,0x00,0x00,0x00,0x01,0x00,0x00,0x00,0x10,0x00,0x00,0x00,0x00,0x00,0x0a,0x00,0x10,0x00,0x0c,0x00,0x08,0x00,0x04,0x00,0x0a,0x00,0x00,0x00,0x0c,0x00,0x00,0x00,0x1c,0x00,0x00,0x00,0x40,0x00,0x00,0x00,0x0f,0x00,0x00,0x00,0x73,0x65,0x72,0x76,0x69,0x6e,0x67,0x5f,0x64,0x65,0x66,0x61,0x75,0x6c,0x74,0x00,0x01,0x00,0x00,0x00,0x04,0x00,0x00,0x00,0x94,0xff,0xff,0xff,0x06,0x00,0x00,0x00,0x04,0x00,0x00,0x00,0x0d,0x00,0x00,0x00,0x71,0x75,0x61,0x6e,0x74,0x5f,0x64,0x65,0x6e,0x73,0x65,0x5f,0x31,0x00,0x00,0x00,0x01,0x00,0x00,0x00,0x04,0x00,0x00,0x00,0x4a,0xfe,0xff,0xff,0x04,0x00,0x00,0x00,0x07,0x00,0x00,0x00,0x69,0x6e,0x70,0x75,0x74,0x5f,0x31,0x00,0x02,0x00,0x00,0x00,0x34,0x00,0x00,0x00,0x04,0x00,0x00,0x00,0xdc,0xff,0xff,0xff,0x09,0x00,0x00,0x00,0x04,0x00,0x00,0x00,0x13,0x00,0x00,0x00,0x43,0x4f,0x4e,0x56,0x45,0x52,0x53,0x49,0x4f,0x4e,0x5f,0x4d,0x45,0x54,0x41,0x44,0x41,0x54,0x41,0x00,0x08,0x00,0x0c,0x00,0x08,0x00,0x04,0x00,0x08,0x00,0x00,0x00,0x08,0x00,0x00,0x00,0x04,0x00,0x00,0x00,0x13,0x00,0x00,0x00,0x6d,0x69,0x6e,0x5f,0x72,0x75,0x6e,0x74,0x69,0x6d,0x65,0x5f,0x76,0x65,0x72,0x73,0x69,0x6f,0x6e,0x00,0x0a,0x00,0x00,0x00,0x58,0x13,0x00,0x00,0x50,0x13,0x00,0x00,0x40,0x01,0x00,0x00,0xe8,0x00,0x00,0x00,0xe0,0x00,0x00,0x00,0xb0,0x00,0x00,0x00,0x98,0x00,0x00,0x00,0x90,0x00,0x00,0x00,0x70,0x00,0x00,0x00,0x04,0x00,0x00,0x00,0xe6,0xfe,0xff,0xff,0x04,0x00,0x00,0x00,0x5c,0x00,0x00,0x00,0x0c,0x00,0x00,0x00,0x08,0x00,0x0e,0x00,0x08,0x00,0x04,0x00,0x08,0x00,0x00,0x00,0x10,0x00,0x00,0x00,0x2c,0x00,0x00,0x00,0x00,0x00,0x06,0x00,0x08,0x00,0x04,0x00,0x06,0x00,0x00,0x00,0x04,0x00,0x00,0x00,0x02,0x00,0x00,0x00,0xeb,0x03,0x00,0x00,0xd0,0x07,0x00,0x00,0x00,0x00,0x0a,0x00,0x10,0x00,0x0c,0x00,0x08,0x00,0x04,0x00,0x0a,0x00,0x00,0x00,0x02,0x00,0x00,0x00,0x02,0x00,0x00,0x00,0x04,0x00,0x00,0x00,0x06,0x00,0x00,0x00,0x32,0x2e,0x31,0x34,0x2e,0x30,0x00,0x00,0x4e,0xff,0xff,0xff,0x04,0x00,0x00,0x00,0x10,0x00,0x00,0x00,0x31,0x2e,0x31,0x34,0x2e,0x30,0x00,0x00,0x00,0x00,0x00,0x00,0x00,0x00,0x00,0x00,0xe0,0xec,0xff,0xff,0x6e,0xff,0xff,0xff,0x04,0x00,0x00,0x00,0x08,0x00,0x00,0x00,0x7b,0x02,0x00,0x00,0x30,0xff,0xff,0xff,0x82,0xff,0xff,0xff,0x04,0x00,0x00,0x00,0x20,0x00,0x00,0x00,0x7f,0x45,0x52,0x00,0x8d,0xb9,0x00,0x00,0x3e,0x96,0x49,0x00,0x00,0x00,0x00,0xbb,0x00,0x00,0x95,0x00,0x00,0x00,0x00,0x82,0x54,0x00,0x7a,0x76,0x5e,0xb1,0x00,0x00,0x24,0xed,0xff,0xff,0xb2,0xff,0xff,0xff,0x04,0x00,0x00,0x00,0x40,0x00,0x00,0x00,0x81,0xf6,0xff,0xff,0x43,0xf6,0xff,0xff,0x32,0xf5,0xff,0xff,0x87,0xf7,0xff,0xff,0xbc,0xf7,0xff,0xff,0xa8,0xf5,0xff,0xff,0x43,0xf6,0xff,0xff,0x00,0x00,0x00,0x00,0xd3,0x15,0x00,0x00,0x00,0x00,0x00,0x00,0x4c,0xf6,0xff,0xff,0x1a,0xf7,0xff,0xff,0xb4,0xf8,0xff,0xff,0x00,0x00,0x00,0x00,0x00,0x00,0x00,0x00,0x00,0x00,0x00,0x00,0x00,0x00,0x06,0x00,0x08,0x00,0x04,0x00,0x06,0x00,0x00,0x00,0x04,0x00,0x00,0x00,0x00,0x12,0x00,0x00,0xde,0x00,0xae,0x00,0x00,0xb3,0x00,0x40,0xaf,0x00,0x00,0xc6,0xa9,0x00,0xa6,0xd6,0x00,0x00,0x00,0xa3,0xb4,0x00,0xb5,0xb2,0xde,0x00,0x29,0x00,0x00,0xc8,0x2d,0x00,0xc7,0xd4,0x00,0x00,0x00,0x00,0xa9,0x00,0x00,0x00,0x00,0xdd,0x00,0x00,0xdd,0x00,0x00,0x00,0x51,0x32,0x28,0x00,0x00,0x00,0xbe,0x00,0xa5,0xac,0x00,0x58,0x00,0xcb,0x00,0x9c,0x00,0xd4,0xd1,0x00,0xdc,0xda,0x00,0xc1,0x00,0x3a,0xb1,0x36,0x00,0xdc,0x00,0x00,0xb4,0x00,0xd1,0xaf,0x00,0x4c,0x34,0x22,0x3a,0x00,0xd6,0x00,0x00,0x00,0x3c,0x00,0x23,0xbd,0x00,0x51,0xa5,0x00,0xdd,0xdc,0x00,0xd8,0x00,0xaa,0x31,0x3d,0xc0,0xba,0x50,0x00,0x00,0x00,0x00,0x2a,0x3c,0xb9,0x00,0x00,0x00,0xba,0x00,0x34,0x37,0x53,0x00,0x00,0x00,0x00,0x47,0x00,0xa4,0x00,0x00,0x28,0x00,0x42,0x00,0xc8,0x00,0x00,0x9f,0x2a,0x00,0x9a,0x4e,0x42,0x00,0xcd,0x00,0x00,0x00,0x00,0x00,0x27,0xb4,0x00,0x00,0x00,0x00,0x3c,0xc1,0x00,0x26,0xa2,0xd7,0x00,0x25,0x3c,0x54,0x00,0xd6,0xbb,0x2d,0x00,0xb8,0xc4,0x00,0x5b,0xc1,0x00,0xd9,0xcb,0x9c,0xa9,0x25,0xc0,0xad,0x00,0xb6,0x41,0xdc,0xab,0x00,0xba,0x37,0x00,0x00,0x00,0x00,0x48,0x00,0x00,0x48,0x00,0x28,0x00,0x00,0x46,0x00,0x00,0x00,0x00,0x00,0xda,0xdd,0x34,0xa3,0x49,0x00,0x00,0xdd,0x00,0x00,0x50,0x00,0x00,0x26,0x39,0xd0,0x50,0x00,0x9e,0x00,0x00,0x00,0xb5,0x00,0x00,0x00,0x00,0x00,0xa4,0x00,0x00,0xdb,0x00,0x3a,0xd8,0x2d,0xca,0xd1,0x4f,0xb2,0x00,0x00,0x3f,0x00,0xcf,0xc3,0x00,0x00,0x00,0x00,0xd9,0x00,0x00,0x00,0x00,0x00,0x00,0xc0,0x00,0xb6,0x00,0x00,0xd2,0xd0,0xcf,0xa4,0x48,0x51,0x00,0x00,0xd3,0xc3,0x4f,0xcc,0x00,0xbd,0x3c,0x00,0x37,0xca,0x00,0xa5,0xdc,0xd0,0x56,0xd2,0x00,0x5c,0xcd,0x00,0x34,0x45,0x00,0xc5,0xd0,0xd0,0x00,0xd5,0x25,0x00,0x9f,0x00,0x00,0xb7,0x00,0xd5,0xd2,0x00,0x23,0x33,0xd9,0x22,0x00,0xd5,0x00,0x00,0x23,0xb8,0x00,0x00,0xd3,0x00,0x00,0x00,0x00,0xc1,0x00,0x3d,0xcc,0x00,0x00,0xc2,0x00,0x00,0x00,0x00,0x97,0xcb,0xbc,0x28,0x00,0x00,0x2c,0x00,0xbe,0xd2,0xc6,0x00,0x00,0x2b,0xdc,0xd1,0x00,0xd0,0x00,0xd2,0xc1,0xd3,0xaf,0x24,0x00,0x00,0x00,0x00,0x00,0x00,0x49,0x00,0xae,0x00,0x00,0x00,0xd7,0x00,0x53,0x00,0x28,0x00,0x00,0xbd,0x23,0x00,0x34,0x5b,0x00,0x4e,0x00,0x00,0x00,0x00,0xb1,0x26,0xb0,0x30,0x00,0xd4,0x00,0xab,0xba,0x00,0x00,0x00,0x00,0x00,0xbc,0x92,0xba,0x53,0xda,0xde,0xdb,0x33,0x3b,0x00,0xce,0x2e,0x00,0x00,0x2c,0x00,0x00,0xb1,0x00,0x00,0xc6,0x00,0x00,0x22,0xd0,0xd1,0x22,0xa9,0x00,0x40,0x5d,0x00,0x40,0x00,0xdd,0x31,0x00,0xc2,0x00,0x51,0xde,0xcd,0x47,0x00,0x4d,0xc1,0x00,0x23,0xd5,0xa4,0x27,0x00,0x38,0x35,0x00,0xdc,0xac,0x38,0xbe,0xb6,0x00,0xd0,0x00,0xcc,0x00,0x35,0x00,0xaa,0xaa,0xad,0x00,0xb6,0x27,0x00,0xbb,0x00,0x00,0x00,0x00,0x00,0x25,0xb6,0xc7,0xd2,0x00,0x00,0x34,0x00,0x00,0x00,0x00,0x00,0x00,0x9f,0x00,0x00,0xc9,0x00,0x00,0xd6,0x9b,0xd3,0x00,0x00,0x00,0x00,0xc0,0xda,0x3c,0x00,0xcc,0xc3,0x00,0x00,0x4c,0xb9,0xab,0x00,0xad,0x00,0xcb,0x00,0xd5,0xc9,0x00,0x00,0x27,0x4a,0xdc,0x00,0x00,0x00,0x94,0xd9,0x00,0xce,0x00,0x00,0x00,0x00,0x00,0xdd,0x00,0x00,0x2c,0xd8,0xd3,0xd7,0xd0,0xa2,0x27,0x00,0x00,0xde,0xbb,0xc1,0xc5,0x00,0xa7,0x2e,0x2d,0x22,0x3a,0x00,0x2c,0x00,0x00,0x00,0x00,0xd9,0xb9,0x00,0xb7,0x00,0x33,0x00,0x00,0x00,0x35,0x00,0x00,0x00,0xbf,0x29,0xcb,0xa9,0xbe,0x38,0x00,0xc2,0x2b,0x00,0xd0,0x00,0x00,0x9a,0x00,0xa4,0x00,0xa7,0x00,0x55,0x00,0x00,0x00,0x00,0x2a,0x00,0x3c,0x00,0xc0,0x00,0x00,0x3a,0x37,0x00,0xb0,0x00,0xd4,0x00,0x00,0x00,0x00,0xba,0xbd,0xd1,0xb0,0x00,0x00,0x2a,0x00,0x4e,0x00,0x22,0x00,0x00,0x52,0x2c,0x30,0x00,0x00,0x00,0xbf,0x28,0x2a,0xda,0xca,0x00,0x00,0x2f,0x00,0xa5,0x00,0x00,0xcd,0x00,0xc2,0x00,0x2a,0x00,0x00,0xb9,0x3b,0x4e,0x00,0x9b,0xad,0xca,0x00,0x00,0x00,0xa3,0xa4,0xc7,0xc9,0x00,0x00,0xdd,0x35,0x4b,0xb9,0x37,0xc8,0xb0,0x91,0x00,0xbf,0x97,0x3b,0x2f,0x00,0x00,0xd8,0x31,0x37,0x00,0x00,0x00,0xd7,0x00,0x00,0xa3,0x00,0xdd,0x00,0xca,0xdd,0xdb,0x00,0x2d,0x00,0x55,0xd6,0xc5,0xcd,0xcd,0x00,0x00,0x35,0x00,0x29,0x00,0x28,0x25,0x47,0x00,0xcb,0x42,0xba,0x00,0xc7,0x00,0x00,0x51,0xa5,0x00,0xd4,0x52,0x00,0x25,0x39,0x28,0x00,0x00,0xd3,0x00,0xc5,0x98,0x00,0x38,0x28,0x4f,0x00,0x00,0x00,0xa8,0xd0,0x00,0x00,0x00,0xbc,0x28,0x00,0x00,0x35,0xc4,0xd6,0x00,0x00,0xcf,0xd5,0x00,0x00,0x26,0x3a,0x31,0x2a,0xa0,0xd9,0x00,0x00,0x00,0x00,0x4d,0x2a,0x2a,0x00,0xc7,0x33,0x22,0x00,0xca,0xa9,0x49,0xc4,0x00,0x30,0xc5,0x00,0x00,0xb3,0x00,0x9a,0xb0,0xa9,0x39,0xb1,0xd9,0x00,0x00,0xca,0x00,0x23,0x00,0xbc,0x00,0xaa,0xd5,0x30,0xbc,0x00,0x00,0x00,0x00,0x43,0x00,0x00,0x00,0x00,0xb7,0x00,0x00,0x00,0xc6,0xd6,0x00,0x00,0xc8,0x9d,0x00,0x00,0x3c,0x00,0x00,0x00,0x33,0xd8,0x5b,0xa1,0x4a,0xc6,0x3a,0x00,0x00,0x35,0x00,0x00,0x00,0x00,0x00,0xa8,0x00,0x00,0xbd,0x00,0x00,0x00,0x00,0xb1,0x30,0x21,0x2c,0x00,0x00,0x3a,0x32,0xd1,0x39,0x00,0x9b,0xc6,0x00,0x3c,0xbe,0x00,0x33,0x3a,0x27,0x00,0x56,0x00,0x00,0x00,0x00,0x56,0xb4,0x00,0x23,0x00,0x00,0xc5,0x00,0x00,0x00,0x00,0x2e,0x00,0x30,0xa5,0xd2,0xcc,0x00,0x00,0x00,0x00,0x53,0x00,0x00,0x00,0xc9,0x00,0x00,0xdb,0x42,0x00,0x00,0x00,0x00,0xd9,0x2a,0x00,0x00,0x00,0x00,0xc6,0x00,0x00,0xae,0x00,0x00,0x22,0x00,0x00,0x44,0x24,0x00,0xab,0x00,0x35,0x00,0xaa,0x00,0x2a,0x00,0x00,0x00,0xc6,0x00,0x00,0xa6,0xab,0x00,0xd9,0x27,0x00,0x32,0x00,0x00,0x00,0xc6,0xab,0x00,0x21,0xbd,0x00,0x00,0x00,0xdd,0x9b,0x00,0x2d,0xbd,0xdc,0x00,0xc1,0x00,0x00,0x31,0x00,0xc8,0x2f,0x00,0xbf,0x2c,0x2a,0x44,0x00,0xaa,0x00,0x00,0x00,0x31,0xc5,0x00,0x00,0x00,0x00,0x00,0x00,0x98,0x00,0xd3,0x00,0x00,0x00,0x2d,0xd1,0x00,0x4d,0xc0,0x00,0xcb,0xcf,0x00,0x00,0xb7,0x00,0x2c,0x00,0xa1,0x4e,0xd5,0x00,0x38,0x00,0x00,0x00,0x32,0xcd,0x31,0x28,0x00,0xaa,0x00,0xa4,0xa3,0xdb,0x00,0x00,0x00,0x00,0x00,0x00,0xd5,0x00,0xd2,0xd7,0x00,0xc1,0x00,0x00,0x31,0x00,0xc8,0x00,0xa3,0x36,0x00,0xd9,0x92,0x2e,0x00,0xcf,0xc9,0x00,0x00,0x00,0x00,0xd8,0x00,0x00,0x00,0xd0,0x41,0x00,0x00,0xdb,0x39,0xd5,0x00,0xd7,0x42,0x26,0x45,0x00,0x00,0x00,0x00,0x35,0x00,0xcc,0xbe,0x00,0x00,0x00,0x00,0x00,0x00,0xc4,0x00,0x00,0xd8,0xae,0x3e,0xb9,0x00,0x00,0x00,0x00,0x00,0x24,0xdc,0x22,0x00,0x30,0x00,0x25,0x00,0x00,0xc5,0xdd,0xdd,0x00,0x00,0x00,0x23,0x32,0xbd,0x00,0x00,0xa9,0x00,0xc2,0x46,0x00,0x00,0xd0,0x00,0x9e,0xcc,0xa8,0x00,0xc4,0x29,0x00,0x3b,0x00,0x48,0x00,0x00,0xb8,0x00,0x39,0xc2,0x00,0x00,0x00,0x00,0x00,0xc9,0x4a,0x2d,0x00,0xb1,0x00,0xc7,0x92,0x00,0xc5,0xc6,0xbb,0xdb,0x00,0x00,0x00,0x00,0xbe,0x00,0x2d,0x00,0x00,0xdc,0x00,0x00,0x00,0x47,0x00,0xc2,0x00,0xcb,0xda,0x00,0xce,0x00,0xa6,0x00,0x2d,0x00,0xd6,0x46,0x00,0xca,0x00,0x00,0xab,0xdd,0x00,0x00,0x00,0x37,0x00,0x00,0x3c,0x00,0x00,0x00,0xd5,0xae,0x00,0x00,0x00,0xde,0x34,0x00,0x00,0x00,0x00,0x00,0x58,0xba,0xa2,0x00,0x00,0x00,0x00,0xbc,0x00,0x00,0x00,0xdb,0x00,0x26,0x2d,0x00,0x00,0xc5,0x00,0xb0,0xdc,0x00,0xbc,0x00,0x00,0xa4,0xcf,0x51,0x00,0xad,0x00,0x00,0x00,0x00,0x34,0xde,0xcc,0x00,0xda,0x26,0xd2,0xb4,0xbf,0x00,0x00,0x2f,0x2b,0xd3,0x00,0xb2,0x00,0x00,0xd8,0x00,0x00,0x94,0x26,0x00,0xd8,0x97,0x00,0x40,0x00,0x00,0x00,0x00,0x00,0x00,0xc3,0xdd,0x00,0x00,0x2a,0x00,0x3c,0xc2,0x2f,0x00,0xcc,0x00,0x00,0x31,0x36,0xa7,0x00,0x00,0x00,0x00,0xcd,0x00,0xcd,0x00,0x46,0x59,0x00,0xc8,0x00,0x39,0x00,0x00,0x00,0x00,0x33,0xc8,0x3d,0x00,0x9f,0x00,0x24,0xdb,0x97,0x00,0x00,0x00,0xd3,0x00,0x00,0x00,0x00,0x00,0xdd,0x45,0x00,0x00,0x00,0x00,0xda,0x00,0x00,0x26,0x00,0x4a,0xdc,0xde,0xa9,0xcd,0x3c,0x00,0x00,0xb3,0x00,0x00,0x3f,0x00,0xc5,0xc7,0x00,0x00,0x00,0x00,0x27,0x00,0x00,0x3e,0x00,0x00,0x00,0xb8,0xbc,0xcc,0xc6,0x55,0x00,0xd6,0xd4,0x28,0x00,0x00,0x2c,0xcb,0x00,0x00,0x9f,0x00,0x00,0x00,0xa3,0xd2,0x00,0x29,0xb1,0x00,0x00,0xd8,0xa1,0x00,0x00,0xc8,0x00,0x00,0x00,0xaf,0xca,0x00,0x00,0x00,0x00,0xaa,0xc5,0xdc,0x00,0x00,0x2f,0xb4,0x00,0xcc,0xcd,0xbc,0x00,0x00,0x00,0x4d,0x00,0x00,0x22,0x00,0x00,0xc2,0x00,0x30,0x00,0xd3,0xd0,0x2f,0x4a,0x23,0x00,0x00,0xce,0xaf,0x00,0x00,0x2e,0x28,0x00,0x00,0x00,0x2b,0x9b,0x00,0x00,0x23,0xce,0xdc,0x00,0xd8,0xc4,0xc6,0x00,0xb2,0x00,0x00,0x00,0xdc,0xab,0x00,0x37,0x3f,0x00,0x00,0xcf,0x00,0xc7,0x9f,0x00,0x00,0xbf,0xdc,0xc7,0x00,0xaa,0x4a,0xc6,0x00,0xd3,0x2d,0x00,0x44,0x37,0x00,0x49,0x00,0x00,0xcf,0x00,0xb4,0x00,0xc6,0x00,0x00,0x00,0xd7,0x00,0x00,0x00,0xcd,0xb1,0x25,0x00,0x00,0x9e,0x00,0x31,0x00,0x26,0xd7,0x24,0x00,0xaf,0xde,0x00,0x4f,0xdc,0x00,0x00,0x00,0xc5,0x00,0x00,0x00,0x00,0xc0,0x00,0x00,0x00,0x00,0x00,0x91,0x00,0x27,0x95,0x00,0xc7,0x00,0x00,0xbf,0x92,0xc2,0x00,0xc0,0x3a,0xd2,0xc1,0x00,0xd3,0x00,0x00,0x00,0x5a,0xd2,0x00,0xaa,0x25,0x00,0xc9,0x2c,0xdb,0x00,0xaf,0xd7,0x34,0x00,0x2a,0x00,0x00,0x00,0x00,0xb8,0x48,0x00,0x00,0x00,0xd4,0x00,0xda,0x00,0x00,0x00,0xd8,0x00,0x00,0xc9,0x33,0xde,0x33,0x26,0x00,0x00,0x22,0xc4,0xd4,0xb7,0x00,0x35,0x95,0x00,0x00,0x00,0x00,0xbe,0x26,0xb6,0x37,0x48,0x00,0x33,0x00,0xd0,0xd8,0x30,0x00,0x00,0x00,0x00,0xcd,0x00,0x00,0x00,0xa0,0x00,0x00,0xa2,0x39,0x45,0x2a,0x00,0x43,0x00,0x00,0x00,0x2f,0x00,0x00,0xd1,0x00,0x00,0x00,0x39,0x00,0xb6,0x00,0x00,0x00,0xd2,0xca,0xdd,0xd5,0x00,0x27,0x00,0xde,0xda,0x24,0x00,0x00,0x00,0x22,0xcb,0x00,0x00,0x22,0x00,0xd2,0x00,0xa6,0x00,0x00,0xbb,0x42,0x3c,0x00,0x38,0xa5,0x26,0x26,0xc2,0x2d,0x00,0x00,0xaa,0xc4,0x00,0x00,0x45,0x00,0x00,0x00,0x00,0x00,0x00,0x00,0x30,0xcf,0xb4,0x00,0x00,0xdc,0xc2,0x00,0x00,0x00,0x2c,0x00,0x26,0x50,0xd8,0x5a,0xc9,0xb9,0x00,0xcf,0x00,0x00,0x00,0xdd,0x00,0xc6,0x00,0x00,0x00,0xa9,0x00,0x00,0x00,0x00,0x00,0x00,0xcb,0x00,0x00,0x00,0x3b,0x00,0x23,0x92,0x00,0xd0,0x00,0x00,0x00,0x00,0x4d,0xd5,0x00,0x00,0xb2,0xd1,0x22,0x49,0x00,0x00,0xa7,0x00,0xd9,0x00,0x35,0xb3,0x00,0xa3,0x00,0x4f,0xbd,0xd9,0x00,0x28,0xd6,0x00,0x00,0xc4,0x49,0xc9,0xc5,0x00,0x00,0x00,0x00,0x24,0x00,0x00,0x00,0x00,0x00,0xac,0x56,0xda,0x00,0xdc,0x00,0x00,0xcd,0x00,0xa2,0x00,0x00,0x00,0x49,0x00,0x9c,0x00,0x37,0x4c,0x00,0xd8,0x00,0x26,0x00,0xd4,0xb3,0x48,0x00,0x00,0x00,0x00,0x00,0xcd,0x4e,0x00,0x00,0x3f,0x33,0xc1,0x00,0x00,0xca,0xd7,0xb5,0xbb,0x00,0xdb,0x00,0x00,0xde,0xdd,0x00,0xcf,0xcc,0xb2,0x00,0x26,0x00,0xd7,0x00,0x00,0xae,0x00,0x00,0x00,0x00,0x00,0xc4,0xaf,0x00,0x00,0xd7,0xdb,0xb4,0x3d,0x00,0x00,0xb2,0x36,0xa9,0x58,0xb3,0x94,0x9f,0x00,0x9a,0xce,0xca,0x29,0x00,0xb3,0x00,0xd0,0xc0,0xb9,0x00,0x00,0xd8,0x30,0x00,0x00,0x00,0xa7,0xbf,0xd1,0x00,0xae,0xd9,0x99,0x00,0x00,0x00,0xb7,0x00,0x00,0x51,0xc8,0xc9,0x52,0x3f,0x51,0x00,0x2f,0x00,0x00,0xcd,0x00,0xcb,0x00,0x36,0x00,0xb0,0x00,0xde,0x00,0x24,0x00,0x00,0x00,0x00,0x00,0x35,0x00,0x00,0x00,0x2f,0x54,0x00,0x00,0xd7,0xc6,0xab,0xd4,0x00,0xd9,0xd7,0xc3,0xbd,0xb6,0xd9,0xb7,0x00,0x33,0x32,0xdc,0xce,0x00,0x26,0xa2,0x00,0xc6,0x00,0xaa,0x00,0xc3,0xd4,0x2b,0xc6,0x00,0xc4,0x00,0xbc,0x00,0x00,0x00,0xb9,0x00,0xd7,0x41,0x00,0x00,0x40,0xcb,0x00,0x00,0xc6,0x00,0x00,0x00,0x00,0x00,0xdc,0x00,0x9d,0x00,0x00,0xc3,0x41,0x00,0x00,0x00,0xca,0x00,0x24,0x00,0xd2,0x00,0x24,0xc9,0x25,0x00,0x00,0x32,0x00,0x00,0xdb,0x00,0xb9,0xbf,0x57,0x35,0xac,0x00,0xc8,0x4a,0x31,0x00,0x00,0x00,0x00,0x48,0x00,0x00,0x4d,0x56,0x00,0x9f,0xad,0x00,0x00,0x00,0xc1,0x00,0xc7,0x00,0x00,0xd3,0x00,0x31,0xce,0x00,0x00,0xd4,0xd7,0xde,0x43,0xc9,0x00,0x39,0x2d,0xce,0x00,0xd7,0xa1,0x00,0x00,0x28,0xd2,0xd1,0x30,0x00,0x2e,0xa2,0x42,0xb3,0x34,0xba,0x25,0x00,0xdd,0xc1,0x00,0x34,0x2a,0xd8,0x51,0x00,0x00,0x55,0x00,0xa4,0x00,0xdb,0xd9,0x00,0x00,0xb9,0x00,0xcc,0x00,0x24,0x31,0x34,0x00,0x31,0x00,0x00,0x00,0x00,0x31,0x24,0xb0,0x00,0x00,0xd6,0x00,0x4d,0xa5,0x48,0x23,0x00,0x00,0xdb,0x00,0x42,0x00,0xd5,0x2a,0x00,0x24,0x9d,0x00,0x00,0x3d,0xbc,0x33,0x00,0x00,0x2b,0x2a,0xcf,0xbd,0x00,0x26,0x63,0x00,0x00,0x00,0x51,0x00,0x00,0xd6,0x29,0x00,0x43,0xd5,0x00,0x00,0x00,0x49,0xcc,0x00,0x00,0x00,0xdb,0xd1,0x2a,0xa0,0x00,0x31,0x00,0x00,0x00,0xcc,0x25,0x27,0xd7,0x00,0xd6,0x00,0x9a,0x00,0x00,0x00,0x2c,0x00,0xc8,0x27,0x00,0x00,0x00,0x00,0x2c,0x00,0x3b,0x00,0x00,0x00,0x00,0xba,0x00,0x44,0x00,0x00,0xcc,0x00,0x00,0x4b,0x00,0xdc,0x00,0xc0,0x00,0x00,0x00,0x00,0xc8,0x9d,0xd9,0x24,0x00,0x00,0x2b,0x27,0xbf,0x00,0x00,0x00,0xd6,0x00,0x00,0x37,0xd6,0x27,0x00,0x00,0x00,0x00,0x00,0x51,0x00,0xae,0xcf,0x00,0xb4,0xb6,0x00,0x39,0x00,0x00,0x00,0x00,0x00,0x00,0x00,0x00,0x00,0xd5,0x00,0xe1,0x00,0x00,0x00,0x5a,0x00,0x00,0x34,0x00,0x3e,0x00,0x2e,0x00,0x00,0x2e,0x00,0xcb,0xe0,0x00,0x00,0x00,0x38,0x00,0xd2,0x00,0x34,0xda,0x00,0x00,0x33,0x00,0x00,0x00,0x00,0x00,0x00,0x00,0x00,0xdb,0xc6,0x00,0x00,0x00,0x00,0x00,0x2a,0x00,0xc6,0xda,0xc9,0xc9,0x39,0x00,0x24,0x00,0x46,0x00,0x00,0x00,0x00,0x71,0x24,0x24,0x00,0x00,0x00,0x00,0x3a,0xc5,0x00,0x4b,0x50,0x74,0x00,0x2b,0xc8,0x00,0x00,0x2f,0xb4,0x5c,0x3c,0x00,0x41,0x40,0x00,0x00,0x00,0xe5,0x00,0x00,0x00,0x00,0x00,0x5a,0x2d,0x00,0x2c,0xcb,0x00,0x45,0x36,0xba,0x3f,0x2c,0x53,0x00,0x4d,0xad,0x43,0x36,0x00,0x00,0x00,0xd6,0xc6,0xdf,0x00,0x00,0xa6,0x00,0x00,0x00,0x49,0xd5,0x00,0x00,0xa3,0x4f,0xb2,0x00,0x00,0x22,0x00,0x00,0xb0,0x00,0x00,0x34,0x00,0xe0,0x00,0xb1,0x00,0x2b,0x51,0x00,0x00,0x00,0x39,0x41,0xd0,0x00,0x00,0x00,0x00,0xdc,0x7f,0x00,0x00,0x00,0x00,0x00,0x00,0x00,0x00,0x00,0xc3,0x00,0x00,0x29,0xa6,0x2a,0x24,0x00,0xc0,0xd8,0x23,0x00,0x00,0x2e,0x00,0x00,0x00,0x00,0xca,0x33,0x00,0x3f,0x00,0xde,0x00,0x42,0xb0,0x00,0x00,0x2b,0x69,0x00,0x00,0x00,0x62,0x00,0x00,0x00,0x00,0x27,0x00,0x00,0x00,0x59,0xcb,0x38,0x00,0x00,0xcc,0x2e,0x50,0xbf,0x48,0xce,0x00,0x9c,0xa1,0x35,0x00,0xd6,0xd0,0x38,0x00,0x2b,0x25,0x00,0x00,0x00,0x00,0x63,0x00,0x00,0x00,0x00,0x2f,0x3f,0x2c,0x3e,0xdf,0xc4,0x00,0x26,0x00,0xa2,0x00,0xde,0x67,0xcf,0xab,0x00,0x2b,0x00,0x00,0xa8,0x00,0xb8,0x00,0x56,0x00,0xd2,0x30,0x00,0xea,0x00,0x00,0xdf,0x00,0x00,0x2b,0x00,0x40,0x00,0x00,0xa6,0x41,0x00,0xc5,0x00,0x00,0x00,0xc9,0x00,0x00,0x00,0xd3,0x4b,0xbd,0x00,0xb9,0x00,0x23,0x00,0xc6,0x00,0x00,0x37,0x00,0xaf,0x00,0xa3,0x25,0x00,0x00,0x00,0xb3,0x00,0x00,0x00,0x44,0x00,0x00,0x00,0x00,0xcb,0x00,0xb6,0x3c,0x00,0xce,0xca,0x00,0x00,0x00,0x00,0xc6,0x00,0x4f,0xbf,0x00,0x52,0x3e,0x2d,0x00,0xd2,0x00,0xd9,0x00,0x00,0xdd,0x00,0x00,0xb6,0x00,0x2d,0xa9,0x58,0x00,0x28,0x4f,0x35,0x3b,0x00,0x00,0xdd,0x5e,0x00,0xcf,0x00,0x3f,0x38,0xc9,0x00,0x3d,0xd7,0x00,0x00,0x61,0xc0,0xbe,0x00,0x35,0x00,0x00,0x00,0x00,0xcf,0x00,0x00,0xad,0x00,0x00,0x4a,0xb7,0x33,0x00,0x00,0x00,0xca,0x00,0xde,0x00,0x00,0xb7,0xa3,0x00,0x00,0x00,0x00,0x00,0x00,0xb4,0xc9,0xce,0x00,0x00,0x00,0x34,0xdc,0xbd,0xbd,0x00,0x28,0xab,0x2d,0x00,0x32,0xdb,0x00,0xd8,0xc0,0x59,0x5d,0xda,0xd5,0x00,0x9f,0xd6,0x9d,0x00,0xbd,0x00,0x00,0x00,0x44,0xaf,0x00,0x00,0x00,0x00,0x00,0xb5,0x00,0x38,0x00,0x00,0x00,0xc1,0x00,0x00,0x66,0xde,0x3e,0x5a,0xb2,0xaf,0xd5,0x51,0x2c,0x34,0x00,0x22,0x00,0x00,0x00,0xda,0x00,0xb8,0x00,0xc5,0xd5,0x00,0x00,0x00,0x00,0x25,0x00,0x46,0x00,0x00,0x00,0x00,0x00,0xc5,0x00,0xda,0x00,0x00,0xde,0x4f,0x2d,0xb5,0x00,0xba,0x00,0x00,0x23,0x00,0xd4,0x00,0x00,0x23,0x58,0xc1,0x24,0x3f,0x00,0xd0,0x43,0x29,0x00,0xd2,0xc8,0x00,0x27,0x00,0x00,0xd3,0x00,0x00,0x3c,0xa4,0x00,0xc5,0x00,0x00,0x00,0x00,0x00,0xda,0x00,0xc2,0x00,0xd0,0x39,0x00,0xce,0x00,0xa9,0xb2,0x3f,0x00,0x2f,0x00,0x00,0xcf,0xdb,0x00,0x00,0x00,0x00,0xd9,0xa7,0xc4,0x2a,0xc5,0x2c,0x00,0xdd,0x28,0x41,0x00,0x32,0x00,0x00,0xc3,0xb4,0x00,0x00,0x3a,0x00,0x54,0x00,0x00,0x00,0x00,0x00,0x33,0x00,0x00,0xb0,0xd1,0x00,0xbf,0x00,0x00,0xd9,0x00,0xda,0x00,0x00,0xd6,0x25,0x4d,0x00,0xac,0x00,0xca,0x00,0x00,0x57,0x34,0x00,0x26,0xd6,0xba,0x00,0x00,0xbb,0x37,0x28,0xcc,0x00,0xd9,0x00,0x00,0xc9,0xc3,0x2e,0xab,0x00,0x00,0x00,0x9c,0x00,0x00,0x34,0x00,0x40,0x9d,0x24,0xce,0x00,0x00,0x00,0x00,0x00,0xdc,0x00,0xcd,0xa3,0x00,0x2e,0xa8,0xb7,0x00,0xc8,0x48,0x9f,0x53,0x00,0xc4,0xcd,0x00,0x25,0x00,0x00,0x00,0x00,0x9c,0xde,0xc5,0x00,0x00,0x00,0x23,0x00,0x00,0x00,0x00,0xc5,0x00,0xb3,0x00,0x00,0x00,0x32,0xcf,0x4b,0xda,0x00,0xd6,0xb2,0x4a,0xbf,0x23,0x00,0x00,0x00,0x00,0x00,0xd3,0x5c,0x00,0x00,0x00,0x00,0x00,0x00,0x00,0x00,0x47,0xad,0xcc,0xdc,0x2b,0xd9,0x3a,0x00,0x4d,0x00,0x00,0xc7,0x4b,0x53,0x2f,0xab,0x00,0x00,0xb6,0xb0,0x00,0x25,0x00,0x00,0x00,0x00,0x00,0x00,0xbe,0xca,0x4d,0x00,0x00,0x00,0x00,0x00,0x35,0x00,0x00,0x26,0x00,0xdd,0x00,0x00,0xd2,0x00,0x00,0x00,0xca,0x00,0x00,0x00,0x00,0x00,0xbc,0x28,0x00,0x00,0x00,0xda,0x00,0xac,0x00,0x32,0xdd,0xde,0xc2,0xc1,0x00,0x00,0x00,0x52,0xd5,0x00,0x00,0xae,0x00,0x00,0x00,0xd9,0x00,0x00,0x00,0x31,0x00,0x00,0xc0,0x00,0x00,0x00,0x2b,0xde,0x00,0x2e,0x00,0x00,0xdc,0x00,0x4f,0xda,0x00,0x00,0x9c,0x00,0x00,0x29,0x00,0x00,0x00,0x29,0x45,0x00,0xa7,0x00,0x00,0x00,0xb9,0x54,0x00,0xcb,0xaf,0x3b,0xda,0x00,0x00,0xa7,0xca,0xa4,0x3d,0x00,0xcc,0x4b,0x00,0x00,0x31,0x00,0x00,0x00,0x3a,0x00,0x00,0x00,0x00,0x00,0x9d,0x00,0x37,0x00,0x00,0x52,0x2e,0x00,0x28,0x00,0x2d,0x00,0x00,0xad,0x00,0x00,0x54,0xad,0x40,0x00,0x98,0x00,0xde,0xd2,0x2e,0x00,0xd3,0x00,0xb8,0xce,0x00,0x00,0xa6,0x00,0x00,0xc7,0xd7,0x00,0x49,0x3f,0x41,0x00,0x2e,0x00,0x2f,0x00,0x00,0x00,0x00,0x91,0x00,0x00,0x00,0x00,0x28,0x9a,0xd1,0xc7,0x00,0x00,0x00,0x00,0x36,0x00,0xd7,0x00,0xd0,0xad,0x00,0x50,0x00,0xc4,0xd6,0x00,0x00,0x00,0x00,0x46,0x4a,0x00,0x00,0x00,0xc1,0xd3,0xdd,0x57,0x00,0x00,0x00,0x00,0x31,0x9e,0x00,0x00,0xc2,0x00,0x99,0x27,0x45,0xcd,0x00,0x00,0xbb,0x00,0xad,0x00,0x00,0xd9,0xdd,0xc1,0x00,0x9f,0xca,0x32,0x00,0x00,0x00,0xa5,0x00,0x38,0xb1,0x00,0x36,0xd8,0x00,0x00,0x26,0x00,0x26,0xab,0x00,0xcc,0x46,0x00,0x00,0xbb,0x00,0x00,0xde,0x00,0xbe,0xc5,0xbd,0x00,0x00,0x2e,0x00,0x00,0x5c,0x93,0x28,0x3d,0x00,0x30,0x00,0x00,0xb1,0xd2,0x32,0xc8,0xbc,0xcf,0x00,0x00,0xd0,0xd6,0x00,0xc9,0x00,0xd9,0x3b,0x43,0x00,0x00,0xae,0x00,0x46,0x00,0xce,0x00,0x00,0x22,0x25,0xba,0x00,0x2d,0xd5,0x34,0x00,0x00,0xc2,0x49,0x00,0xb8,0xc9,0x00,0x00,0x00,0x00,0x00,0x00,0x00,0xd5,0x00,0xb0,0x26,0x00,0x00,0x00,0xd1,0x00,0x00,0x28,0xdd,0xde,0x00,0x00,0x00,0xb5,0x00,0x00,0xdc,0x00,0x00,0x99,0x00,0x00,0x49,0x00,0x00,0x00,0xd6,0x00,0xb5,0xcc,0x48,0x00,0x00,0xdd,0x00,0x00,0x00,0x00,0xcc,0x00,0x33,0xdc,0x00,0x27,0x00,0x00,0x97,0x00,0xd8,0x00,0x00,0x25,0x00,0xa5,0x00,0x00,0xad,0x00,0x00,0x00,0x00,0x00,0x00,0xd8,0x00,0x00,0xc3,0x00,0x00,0x3b,0xd5,0x00,0x00,0x00,0x00,0xac,0xd9,0xa5,0x00,0xc6,0x2a,0x25,0x00,0x00,0xc4,0x00,0x00,0xd6,0x00,0x4a,0x38,0x2b,0x00,0x00,0x00,0x28,0x25,0x00,0x00,0x00,0xde,0x00,0x36,0x00,0x00,0x00,0x00,0xb2,0x2d,0x00,0x00,0x00,0x00,0x00,0x00,0x00,0x00,0xbe,0xd5,0x00,0x40,0xce,0x42,0xb8,0x00,0x00,0xcf,0x4b,0xb5,0x40,0x2a,0x25,0x00,0x3f,0x00,0x9c,0xc5,0xaf,0x00,0x4a,0x00,0xc1,0x00,0x00,0xd4,0x00,0x36,0x2b,0x00,0x00,0x00,0x44,0x97,0x00,0x9e,0xd1,0x00,0x40,0xd1,0x00,0x3c,0x00,0xa4,0x00,0xd6,0xa3,0x26,0xb4,0x42,0x2b,0x34,0x00,0x3f,0xc8,0x00,0xc5,0xc3,0x00,0x2b,0xac,0x00,0x00,0x34,0xce,0x00,0x00,0x00,0x00,0xd0,0xdb,0x00,0xd1,0xbf,0x23,0x23,0x00,0x00,0x00,0x00,0xc4,0xd1,0x00,0x00,0x00,0x00,0x00,0x47,0xd9,0xc5,0xdd,0x00,0x00,0x00,0x00,0xa3,0x00,0x26,0x00,0x46,0xbc,0x00,0x4c,0xd0,0x00,0x23,0xcf,0x00,0x37,0xdd,0x00,0xad,0xda,0x00,0x22,0x00,0x00,0x3e,0x00,0x00,0x00,0xac,0xbe,0x00,0x00,0x2a,0x00,0x00,0xc3,0x00,0xc7,0x00,0xbe,0xd8,0xd5,0xab,0x00,0xb9,0x00,0x00,0xc7,0xc5,0x00,0xc8,0x00,0xac,0x49,0x00,0x00,0x34,0x00,0x2f,0xba,0xbf,0x00,0x00,0x26,0x00,0xc9,0x00,0x00,0x00,0x25,0x24,0x00,0x00,0x00,0x00,0x3f,0x28,0xd6,0x00,0x41,0xc0,0xcb,0x27,0x00,0xaf,0xc8,0x00,0xbc,0x00,0x31,0x28,0x00,0x00,0xab,0x00,0xaa,0x00,0x3b,0x00,0x28,0xd5,0x00,0x27,0xcd,0x49,0xaf,0x00,0x00,0x00,0x00,0x00,0x00,0x4e,0x00,0x22,0x00,0x00,0x00,0x00,0x00,0x00,0x30,0x00,0x3c,0xaf,0xc8,0x00,0xd7,0x2f,0xcf,0x00,0x00,0x00,0x00,0x00,0x00,0x00,0xab,0x00,0xda,0x32,0xd9,0xc5,0x25,0x33,0x00,0x00,0x2f,0x00,0x00,0x29,0x00,0x00,0x00,0x00,0xcc,0x00,0x00,0x00,0x00,0xd9,0x28,0x2e,0x00,0xbc,0xc7,0x64,0x00,0x00,0x00,0x33,0x49,0x31,0xa8,0xd4,0x00,0xbb,0x00,0x00,0xc6,0x00,0x23,0x24,0xc4,0x00,0x00,0x00,0x00,0x4b,0xcc,0x00,0xba,0xc3,0x00,0x00,0xd8,0x00,0xc4,0xc0,0x25,0x00,0x41,0x00,0x00,0xaf,0xac,0xab,0xbb,0x00,0x00,0xaf,0x38,0xb9,0x00,0x00,0xdd,0x00,0xa6,0x00,0x00,0x00,0xdc,0x25,0xc4,0x00,0xdc,0x00,0xd5,0x00,0x00,0xd1,0x00,0x00,0xd2,0x00,0x00,0x00,0x00,0x36,0x00,0xbf,0xc4,0xd8,0xa5,0xbc,0x50,0x00,0xc9,0x00,0x00,0xbb,0x00,0x2c,0x00,0x00,0x2f,0x59,0x00,0x00,0x00,0x4c,0x00,0x00,0x00,0xc7,0x00,0x00,0x00,0x00,0x00,0x4e,0xd6,0xca,0x2e,0x00,0xd6,0x00,0x00,0xbd,0xbe,0x61,0x00,0xcd,0x00,0x00,0xae,0x00,0x23,0x00,0x5a,0x2e,0x00,0x58,0xcf,0xd6,0x00,0x00,0x26,0x59,0x00,0x00,0x00,0x00,0x50,0x49,0x00,0x00,0x00,0x37,0x00,0x2f,0xa1,0x24,0x00,0xa0,0x00,0xc7,0x00,0xb7,0x00,0x00,0x00,0xa3,0x2c,0x00,0x00,0x00,0xd5,0x3c,0xd2,0x00,0x67,0x35,0xb2,0x00,0x00,0x26,0x00,0x9b,0xd5,0x00,0x3e,0x41,0x00,0x00,0x00,0x00,0xc7,0x00,0x00,0x00,0xd0,0x00,0x00,0x39,0x00,0x2f,0xc8,0xb3,0x52,0x42,0x35,0x2b,0x00,0x2c,0x00,0x00,0x27,0x00,0x00,0x28,0x9e,0x00,0x27,0x00,0x00,0xb5,0x00,0x00,0xc8,0xd5,0x00,0x00,0xc9,0xbf,0xbe,0x00,0x00,0x00,0x00,0x00,0xa5,0x00,0x34,0x3a,0x25,0xdc,0x00,0x33,0x00,0x52,0x57,0x00,0xd6,0x00,0x00,0x00,0x00,0xcd,0x2e,0x00,0xdc,0x00,0x2e,0xd9,0x00,0x00,0xb7,0x00,0x00,0x00,0x00,0xa2,0xcc,0x00,0x00,0x00,0x00,0x00,0x00,0x00,0x00,0x2d,0x00,0x00,0x2f,0x00,0x3d,0x00,0x5c,0x00,0x00,0x00,0xd4,0x00,0x00,0x00,0x00,0xa4,0x35,0x54,0x56,0x00,0x00,0x26,0x5e,0xc5,0x00,0xd2,0xb3,0x4d,0x00,0x00,0x3e,0xcb,0xd0,0x00,0xca,0x00,0x00,0x64,0x00,0x42,0xdc,0xc6,0x26,0x00,0xc7,0x00,0x00,0xb4,0xa6,0x00,0x00,0x23,0xdc,0x00,0x24,0x00,0xce,0x3f,0xb5,0x28,0x00,0x00,0xbd,0x00,0x24,0xd4,0x00,0x00,0x00,0x00,0x00,0xdd,0xcf,0xdd,0x00,0x00,0x00,0x00,0xdb,0x00,0x00,0x00,0xd8,0x00,0x00,0x31,0x00,0x29,0xd4,0x00,0x2d,0x57,0x00,0x00,0xce,0xd4,0x00,0x00,0x2b,0x00,0xcc,0xc8,0x28,0x00,0x00,0x00,0x4a,0x00,0x00,0x00,0x00,0x00,0x00,0x00,0x00,0x00,0x35,0xa8,0x00,0x00,0x66,0xcc,0xc1,0x00,0x2f,0x5c,0x00,0xd4,0x00,0x00,0x00,0x00,0x00,0x00,0x00,0xc3,0xac,0x00,0x2f,0x51,0x00,0xb5,0x39,0xd3,0x9b,0x00,0x28,0x00,0xd5,0x00,0x00,0xd9,0xd6,0x00,0x00,0xa5,0x00,0xdc,0x00,0x00,0x3f,0x2e,0xcc,0x00,0xa5,0x00,0x00,0xdc,0x00,0x00,0x00,0x27,0x00,0x00,0xb4,0xac,0x00,0xd5,0x00,0x00,0x27,0x00,0xd7,0xdc,0xd9,0xc6,0xbd,0x49,0x00,0x2f,0x2e,0x00,0xca,0x00,0xda,0x59,0x2d,0x00,0x00,0xb6,0x00,0x00,0x26,0x00,0x00,0x00,0x00,0xc0,0x39,0x00,0x00,0xbb,0x00,0x00,0x00,0xb4,0x00,0x00,0xbb,0x00,0x00,0x00,0x4a,0xc9,0x00,0xd1,0xd5,0xd9,0xd8,0xd4,0x00,0x22,0x00,0x4b,0x9e,0x00,0x00,0xc2,0xcf,0xd7,0x00,0x24,0x64,0xde,0x4b,0x9c,0xca,0x2e,0x00,0xb5,0xd4,0xbb,0x00,0x2b,0x00,0x29,0x00,0x00,0x00,0xdb,0xc4,0x00,0x00,0x00,0x22,0xbb,0x2b,0x00,0x37,0x24,0xd6,0xda,0x00,0xb0,0xaf,0x00,0x00,0xc1,0x00,0x4b,0xdb,0x00,0x00,0x00,0x00,0x00,0x00,0x00,0x00,0x00,0x00,0x32,0x00,0x00,0x2e,0x00,0xd3,0xc1,0x00,0x00,0x00,0x45,0x00,0xbe,0x00,0x00,0x00,0x9a,0x00,0x40,0xc7,0x00,0x2a,0x00,0x00,0x00,0xb5,0xc8,0xbd,0xba,0x00,0x00,0x00,0x00,0x00,0x00,0x00,0xd6,0x30,0x00,0x24,0x31,0x00,0xbf,0x00,0x00,0x00,0x00,0x00,0x36,0x00,0x28,0x00,0xbc,0x00,0x54,0x00,0x00,0xc7,0x00,0x37,0x00,0x00,0xc8,0x00,0xdc,0x00,0xd1,0x00,0x61,0x00,0x53,0x00,0x24,0x00,0x00,0x00,0x00,0xc2,0x00,0xc7,0xde,0x2c,0x00,0x00,0x00,0x00,0x00,0x00,0x00,0xd5,0x00,0xcd,0x00,0x2e,0x00,0x2f,0xc7,0xd7,0x3d,0x00,0xd0,0xde,0xbb,0x00,0x00,0x00,0x00,0x00,0x00,0x42,0x00,0xd6,0x3d,0x00,0xd5,0xc0,0x00,0x00,0x00,0xa5,0x00,0x00,0x00,0x36,0x32,0xcd,0xda,0x00,0x35,0x00,0xb6,0x00,0x00,0x00,0x00,0x58,0x2a,0x26,0xd8,0x00,0x00,0x00,0x00,0x00,0x3d,0xa4,0xd8,0x4f,0x00,0x00,0x00,0x00,0xc9,0x2a,0x52,0x3c,0x25,0x00,0x00,0x00,0x00,0x00,0x43,0xd4,0xc8,0x32,0x00,0x00,0x00,0xd9,0xd3,0xbb,0x00,0xda,0x39,0x00,0x00,0x00,0xb4,0x00,0xba,0x00,0xcf,0x00,0xd1,0xc5,0xd8,0x00,0x00,0x42,0x00,0x00,0x00,0xc4,0x00,0x00,0x00,0x00,0x00,0xa3,0xdb,0x48,0xbf,0x00,0xa7,0xd5,0x00,0x00,0x42,0x23,0x00,0x00,0x00,0x00,0x23,0x00,0x00,0x00,0xde,0x00,0x00,0xcc,0x00,0x00,0x00,0x29,0xd3,0x00,0x00,0x28,0x38,0x00,0xbe,0xad,0x00,0x00,0xb0,0x00,0x00,0x4a,0xb3,0x00,0x00,0x00,0xc0,0x00,0x25,0x00,0x00,0x00,0xd0,0x00,0xb1,0x25,0x00,0x2d,0x00,0x31,0xb2,0xce,0xc4,0x00,0x00,0x00,0x2c,0xbf,0xde,0xd5,0x27,0x00,0x00,0x00,0xcc,0x00,0x2f,0x28,0x3c,0xdd,0x9c,0xae,0x2c,0x00,0xd0,0xd4,0x32,0xae,0x00,0x00,0x00,0xbc,0xa7,0xdc,0xb8,0xd7,0x00,0x51,0x46,0x2b,0xd5,0xd5,0x3a,0x00,0x30,0x2c,0x88,0xff,0xff,0xff,0x8c,0xff,0xff,0xff,0x0f,0x00,0x00,0x00,0x4d,0x4c,0x49,0x52,0x20,0x43,0x6f,0x6e,0x76,0x65,0x72,0x74,0x65,0x64,0x2e,0x00,0x01,0x00,0x00,0x00,0x14,0x00,0x00,0x00,0x00,0x00,0x0e,0x00,0x18,0x00,0x14,0x00,0x10,0x00,0x0c,0x00,0x08,0x00,0x04,0x00,0x0e,0x00,0x00,0x00,0x14,0x00,0x00,0x00,0x1c,0x00,0x00,0x00,0xa4,0x00,0x00,0x00,0xa8,0x00,0x00,0x00,0xac,0x00,0x00,0x00,0x04,0x00,0x00,0x00,0x6d,0x61,0x69,0x6e,0x00,0x00,0x00,0x00,0x02,0x00,0x00,0x00,0x4c,0x00,0x00,0x00,0x04,0x00,0x00,0x00,0xca,0xff,0xff,0xff,0x14,0x00,0x00,0x00,0x00,0x00,0x00,0x08,0x10,0x00,0x00,0x00,0x14,0x00,0x00,0x00,0x04,0x00,0x04,0x00,0x04,0x00,0x00,0x00,0x01,0x00,0x00,0x00,0x06,0x00,0x00,0x00,0x03,0x00,0x00,0x00,0x03,0x00,0x00,0x00,0x04,0x00,0x00,0x00,0x05,0x00,0x00,0x00,0x00,0x00,0x0e,0x00,0x16,0x00,0x00,0x00,0x10,0x00,0x0c,0x00,0x0b,0x00,0x04,0x00,0x0e,0x00,0x00,0x00,0x18,0x00,0x00,0x00,0x00,0x00,0x00,0x08,0x18,0x00,0x00,0x00,0x1c,0x00,0x00,0x00,0x00,0x00,0x06,0x00,0x08,0x00,0x07,0x00,0x06,0x00,0x00,0x00,0x00,0x00,0x00,0x01,0x01,0x00,0x00,0x00,0x03,0x00,0x00,0x00,0x03,0x00,0x00,0x00,0x00,0x00,0x00,0x00,0x01,0x00,0x00,0x00,0x02,0x00,0x00,0x00,0x01,0x00,0x00,0x00,0x06,0x00,0x00,0x00,0x01,0x00,0x00,0x00,0x00,0x00,0x00,0x00,0x07,0x00,0x00,0x00,0xc8,0x03,0x00,0x00,0x00,0x03,0x00,0x00,0x6c,0x02,0x00,0x00,0xb0,0x01,0x00,0x00,0xfc,0x00,0x00,0x00,0x80,0x00,0x00,0x00,0x04,0x00,0x00,0x00,0x6a,0xfc,0xff,0xff,0x00,0x00,0x00,0x01,0x18,0x00,0x00,0x00,0x20,0x00,0x00,0x00,0x3c,0x00,0x00,0x00,0x07,0x00,0x00,0x00,0x00,0x00,0x00,0x09,0x50,0x00,0x00,0x00,0x02,0x00,0x00,0x00,0xff,0xff,0xff,0xff,0x02,0x00,0x00,0x00,0x54,0xfc,0xff,0xff,0x08,0x00,0x00,0x00,0x10,0x00,0x00,0x00,0x01,0x00,0x00,0x00,0xff,0xff,0xff,0xff,0xff,0xff,0xff,0xff,0x01,0x00,0x00,0x00,0xb3,0x94,0x3e,0x3d,0x19,0x00,0x00,0x00,0x53,0x74,0x61,0x74,0x65,0x66,0x75,0x6c,0x50,0x61,0x72,0x74,0x69,0x74,0x69,0x6f,0x6e,0x65,0x64,0x43,0x61,0x6c,0x6c,0x3a,0x30,0x00,0x00,0x00,0x02,0x00,0x00,0x00,0x01,0x00,0x00,0x00,0x02,0x00,0x00,0x00,0xa6,0xfd,0xff,0xff,0x00,0x00,0x00,0x01,0x14,0x00,0x00,0x00,0x30,0x00,0x00,0x00,0x06,0x00,0x00,0x00,0x00,0x00,0x00,0x02,0x58,0x00,0x00,0x00,0xbc,0xfc,0xff,0xff,0x08,0x00,0x00,0x00,0x10,0x00,0x00,0x00,0x01,0x00,0x00,0x00,0x00,0x00,0x00,0x00,0x00,0x00,0x00,0x00,0x01,0x00,0x00,0x00,0x02,0xfa,0x4d,0x39,0x2f,0x00,0x00,0x00,0x73,0x65,0x71,0x75,0x65,0x6e,0x74,0x69,0x61,0x6c,0x2f,0x71,0x75,0x61,0x6e,0x74,0x5f,0x64,0x65,0x6e,0x73,0x65,0x5f,0x31,0x2f,0x42,0x69,0x61,0x73,0x41,0x64,0x64,0x2f,0x52,0x65,0x61,0x64,0x56,0x61,0x72,0x69,0x61,0x62,0x6c,0x65,0x4f,0x70,0x00,0x01,0x00,0x00,0x00,0x02,0x00,0x00,0x00,0x1e,0xfe,0xff,0xff,0x00,0x00,0x00,0x01,0x14,0x00,0x00,0x00,0x34,0x00,0x00,0x00,0x05,0x00,0x00,0x00,0x00,0x00,0x00,0x09,0x8c,0x00,0x00,0x00,0x34,0xfd,0xff,0xff,0x08,0x00,0x00,0x00,0x14,0x00,0x00,0x00,0x01,0x00,0x00,0x00,0x00,0x00,0x00,0x00,0x00,0x00,0x00,0x00,0x00,0x00,0x00,0x00,0x01,0x00,0x00,0x00,0x71,0x27,0x8a,0x3b,0x5f,0x00,0x00,0x00,0x73,0x65,0x71,0x75,0x65,0x6e,0x74,0x69,0x61,0x6c,0x2f,0x71,0x75,0x61,0x6e,0x74,0x5f,0x64,0x65,0x6e,0x73,0x65,0x5f,0x31,0x2f,0x4d,0x61,0x74,0x4d,0x75,0x6c,0x3b,0x73,0x65,0x71,0x75,0x65,0x6e,0x74,0x69,0x61,0x6c,0x2f,0x71,0x75,0x61,0x6e,0x74,0x5f,0x64,0x65,0x6e,0x73,0x65,0x5f,0x31,0x2f,0x4c,0x61,0x73,0x74,0x56,0x61,0x6c,0x75,0x65,0x51,0x75,0x61,0x6e,0x74,0x2f,0x46,0x61,0x6b,0x65,0x51,0x75,0x61,0x6e,0x74,0x57,0x69,0x74,0x68,0x4d,0x69,0x6e,0x4d,0x61,0x78,0x56,0x61,0x72,0x73,0x00,0x02,0x00,0x00,0x00,0x02,0x00,0x00,0x00,0x10,0x00,0x00,0x00,0x0a,0xfe,0xff,0xff,0x00,0x00,0x00,0x01,0x18,0x00,0x00,0x00,0x20,0x00,0x00,0x00,0x3c,0x00,0x00,0x00,0x04,0x00,0x00,0x00,0x00,0x00,0x00,0x09,0x90,0x00,0x00,0x00,0x02,0x00,0x00,0x00,0xff,0xff,0xff,0xff,0x10,0x00,0x00,0x00,0xf4,0xfd,0xff,0xff,0x08,0x00,0x00,0x00,0x10,0x00,0x00,0x00,0x01,0x00,0x00,0x00,0xff,0xff,0xff,0xff,0xff,0xff,0xff,0xff,0x01,0x00,0x00,0x00,0x73,0xd6,0x3e,0x3d,0x58,0x00,0x00,0x00,0x73,0x65,0x71,0x75,0x65,0x6e,0x74,0x69,0x61,0x6c,0x2f,0x71,0x75,0x61,0x6e,0x74,0x5f,0x64,0x65,0x6e,0x73,0x65,0x2f,0x4d,0x61,0x74,0x4d,0x75,0x6c,0x3b,0x73,0x65,0x71,0x75,0x65,0x6e,0x74,0x69,0x61,0x6c,0x2f,0x71,0x75,0x61,0x6e,0x74,0x5f,0x64,0x65,0x6e,0x73,0x65,0x2f,0x52,0x65,0x6c,0x75,0x3b,0x73,0x65,0x71,0x75,0x65,0x6e,0x74,0x69,0x61,0x6c,0x2f,0x71,0x75,0x61,0x6e,0x74,0x5f,0x64,0x65,0x6e,0x73,0x65,0x2f,0x42,0x69,0x61,0x73,0x41,0x64,0x64,0x00,0x00,0x00,0x00,0x02,0x00,0x00,0x00,0x01,0x00,0x00,0x00,0x10,0x00,0x00,0x00,0x86,0xff,0xff,0xff,0x00,0x00,0x00,0x01,0x14,0x00,0x00,0x00,0x30,0x00,0x00,0x00,0x03,0x00,0x00,0x00,0x00,0x00,0x00,0x02,0x58,0x00,0x00,0x00,0x9c,0xfe,0xff,0xff,0x08,0x00,0x00,0x00,0x10,0x00,0x00,0x00,0x01,0x00,0x00,0x00,0x00,0x00,0x00,0x00,0x00,0x00,0x00,0x00,0x01,0x00,0x00,0x00,0x68,0x69,0xf2,0x36,0x2d,0x00,0x00,0x00,0x73,0x65,0x71,0x75,0x65,0x6e,0x74,0x69,0x61,0x6c,0x2f,0x71,0x75,0x61,0x6e,0x74,0x5f,0x64,0x65,0x6e,0x73,0x65,0x2f,0x42,0x69,0x61,0x73,0x41,0x64,0x64,0x2f,0x52,0x65,0x61,0x64,0x56,0x61,0x72,0x69,0x61,0x62,0x6c,0x65,0x4f,0x70,0x00,0x00,0x00,0x01,0x00,0x00,0x00,0x10,0x00,0x00,0x00,0x00,0x00,0x16,0x00,0x1c,0x00,0x18,0x00,0x17,0x00,0x10,0x00,0x0c,0x00,0x08,0x00,0x00,0x00,0x00,0x00,0x00,0x00,0x07,0x00,0x16,0x00,0x00,0x00,0x00,0x00,0x00,0x01,0x14,0x00,0x00,0x00,0x34,0x00,0x00,0x00,0x02,0x00,0x00,0x00,0x00,0x00,0x00,0x09,0x88,0x00,0x00,0x00,0x2c,0xff,0xff,0xff,0x08,0x00,0x00,0x00,0x14,0x00,0x00,0x00,0x01,0x00,0x00,0x00,0x00,0x00,0x00,0x00,0x00,0x00,0x00,0x00,0x00,0x00,0x00,0x00,0x01,0x00,0x00,0x00,0xff,0x76,0xf1,0x3a,0x5b,0x00,0x00,0x00,0x73,0x65,0x71,0x75,0x65,0x6e,0x74,0x69,0x61,0x6c,0x2f,0x71,0x75,0x61,0x6e,0x74,0x5f,0x64,0x65,0x6e,0x73,0x65,0x2f,0x4d,0x61,0x74,0x4d,0x75,0x6c,0x3b,0x73,0x65,0x71,0x75,0x65,0x6e,0x74,0x69,0x61,0x6c,0x2f,0x71,0x75,0x61,0x6e,0x74,0x5f,0x64,0x65,0x6e,0x73,0x65,0x2f,0x4c,0x61,0x73,0x74,0x56,0x61,0x6c,0x75,0x65,0x51,0x75,0x61,0x6e,0x74,0x2f,0x46,0x61,0x6b,0x65,0x51,0x75,0x61,0x6e,0x74,0x57,0x69,0x74,0x68,0x4d,0x69,0x6e,0x4d,0x61,0x78,0x56,0x61,0x72,0x73,0x00,0x02,0x00,0x00,0x00,0x10,0x00,0x00,0x00,0x20,0x01,0x00,0x00,0x00,0x00,0x16,0x00,0x20,0x00,0x1c,0x00,0x1b,0x00,0x14,0x00,0x10,0x00,0x0c,0x00,0x00,0x00,0x00,0x00,0x08,0x00,0x07,0x00,0x16,0x00,0x00,0x00,0x00,0x00,0x00,0x01,0x18,0x00,0x00,0x00,0x2c,0x00,0x00,0x00,0x48,0x00,0x00,0x00,0x01,0x00,0x00,0x00,0x00,0x00,0x00,0x09,0x5c,0x00,0x00,0x00,0x02,0x00,0x00,0x00,0xff,0xff,0xff,0xff,0x20,0x01,0x00,0x00,0x0c,0x00,0x0c,0x00,0x00,0x00,0x00,0x00,0x08,0x00,0x04,0x00,0x0c,0x00,0x00,0x00,0x08,0x00,0x00,0x00,0x10,0x00,0x00,0x00,0x01,0x00,0x00,0x00,0x80,0xff,0xff,0xff,0xff,0xff,0xff,0xff,0x01,0x00,0x00,0x00,0x81,0x80,0x80,0x3b,0x19,0x00,0x00,0x00,0x73,0x65,0x72,0x76,0x69,0x6e,0x67,0x5f,0x64,0x65,0x66,0x61,0x75,0x6c,0x74,0x5f,0x69,0x6e,0x70,0x75,0x74,0x5f,0x31,0x3a,0x30,0x00,0x00,0x00,0x02,0x00,0x00,0x00,0x01,0x00,0x00,0x00,0x20,0x01,0x00,0x00,0x01,0x00,0x00,0x00,0x10,0x00,0x00,0x00,0x0c,0x00,0x10,0x00,0x0f,0x00,0x00,0x00,0x08,0x00,0x04,0x00,0x0c,0x00,0x00,0x00,0x09,0x00,0x00,0x00,0x04,0x00,0x00,0x00,0x00,0x00,0x00,0x09};

const int environment_model_len = 6616;

#endif // ENVIRONMENT_MODEL_DATA_MLP_H
